'<pad>_'
'<EOS>_'
'._'
', _'
''_'
'?_'
'I_'
'the_'
'you_'
'- _'
'to_'
's_'
'a_'
'là_'
'không_'
'!_'
'tôi_'
'có_'
'of_'
'and_'
'ta_'
'that_'
't_'
'it_'
'của_'
'. _'
'một_'
'in_'
'is_'
'và_'
'Tôi_'
'anh_'
'đã_'
'đó_'
'sẽ_'
'_'
'chúng_'
'người_'
'You_'
'được_'
'gì_'
'đi_'
'này_'
'làm_'
'cho_'
'thể_'
'we_'
'me_'
'-_'
'this_'
'..._'
'phải_'
'on_'
'với_'
'những_'
'for_'
'ở_'
'm_'
'rồi_'
'ra_'
'have_'
'nói_'
'... _'
'trong_'
're_'
'biết_'
'do_'
'was_'
'đây_'
'Anh_'
'nó_'
'are_'
'be_'
'my_'
'thế_'
'your_'
'And_'
'lại_'
'cô_'
'để_'
'can_'
'not_'
'con_'
'It_'
'with_'
'như_'
'mà_'
'know_'
'đang_'
'nào_'
'sao_'
'Không_'
'what_'
'What_'
'về_'
'ấy_'
'bạn_'
'các_'
'đến_'
'khi_'
'muốn_'
'em_'
'ông_'
'We_'
'Và_'
'all_'
'he_'
'don_'
'sự_'
'cái_'
'vậy_'
'thấy_'
'cả_'
'Chúng_'
'about_'
'just_'
'like_'
'vào_'
'The_'
'they_'
'here_'
'out_'
'́_'
'họ_'
'up_'
'điều_'
'việc_'
'there_'
'at_'
'cậu_'
'nghĩ_'
'chỉ_'
'đâu_'
'thì_'
'get_'
'cũng_'
'll_'
'No_'
'bị_'
'one_'
'chuyện_'
'so_'
'right_'
'an_'
'rất_'
'go_'
'him_'
'giờ_'
'Có_'
'hơn_'
'i_'
'So_'
'mình_'
'He_'
'từ_'
'as_'
've_'
'no_'
'That_'
'cần_'
'còn_'
'but_'
'y_'
'vì_'
'Nhưng_'
'from_'
'But_'
'Oh_'
'1_'
'đầu_'
'đấy_'
'thứ_'
'nữa_'
'n_'
'us_'
'd_'
'nhiều_'
'if_'
'nhà_'
'think_'
'̀_'
'got_'
'her_'
'will_'
'thôi_'
'want_'
'nhưng_'
'Yeah_'
'Cô_'
'tới_'
'them_'
'ai_'
'thật_'
',_'
'̣_'
'cách_'
'khác_'
'lên_'
'trên_'
'rằng_'
'see_'
'ng_'
'nên_'
'now_'
'công_'
'going_'
'Em_'
'or_'
'our_'
'chứ_'
'time_'
'nhất_'
'This_'
'thành_'
' -- _'
'back_'
': _'
'were_'
'tìm_'
'his_'
'would_'
'chưa_'
'tin_'
'mọi_'
'people_'
'? _'
'who_'
'ơn_'
'They_'
'Nó_'
'quan_'
'had_'
'Well_'
'she_'
'nếu_'
'hay_'
'by_'
'à_'
'when_'
'trước_'
'more_'
'Ông_'
' "_'
'been_'
'hắn_'
'năm_'
'need_'
'sống_'
'học_'
'qua_'
'did_'
'gonna_'
'way_'
'how_'
'quá_'
'ing_'
'tốt_'
'cùng_'
'Đó_'
'Cậu_'
'thực_'
'#_'
'some_'
'"_'
'theo_'
'good_'
'chết_'
'could_'
'bắt_'
'Vậy_'
'! _'
'Hey_'
'nghe_'
'ý_'
'bao_'
'ngày_'
'sau_'
'has_'
'man_'
'Nếu_'
'nhận_'
'mới_'
'e_'
'tự_'
'A_'
'really_'
'Được_'
'chính_'
'say_'
'số_'
'thích_'
'động_'
'take_'
'down_'
'c_'
'How_'
'cảm_'
'nhân_'
'come_'
'cuộc_'
'Con_'
'very_'
'Okay_'
'make_'
'xem_'
'something_'
'Đây_'
'There_'
'."_'
';_'
'ed_'
'these_'
'If_'
'then_'
'tay_'
'She_'
'yêu_'
'nhìn_'
'tất_'
'tại_'
'Một_'
'Ta_'
'Yes_'
'vẫn_'
'lỗi_'
'đúng_'
'cơ_'
'̀ _'
'their_'
'thời_'
'Come_'
'Now_'
'(_'
'định_'
'gọi_'
'mẹ_'
'trở_'
'giới_'
'hiểu_'
'gặp_'
'gia_'
'didn_'
'nhau_'
'tên_'
'because_'
'giúp_'
'over_'
'tell_'
'ăn_'
'hết_'
'lúc_'
'o_'
'Why_'
'Sao_'
'into_'
'where_'
'hai_'
'said_'
') _'
'toàn_'
'đề_'
'little_'
'nơi_'
'bằng_'
'Let_'
'lần_'
'nay_'
'bảo_'
'ngay_'
'hiện_'
'only_'
'2_'
'bà_'
'look_'
'Họ_'
'nhiên_'
'mặt_'
'sinh_'
'too_'
'́ _'
'đưa_'
'thing_'
'All_'
'lắm_'
'hàng_'
'two_'
'hình_'
'never_'
'lấy_'
'much_'
'than_'
'xe_'
'mất_'
'let_'
'off_'
'mày_'
'Don_'
'hỏi_'
'lý_'
'lớn_'
'giết_'
'nước_'
'Do_'
'câu_'
'doing_'
'gian_'
'cứ_'
'other_'
'đường_'
'Xin_'
'vụ_'
'bộ_'
'Đừng_'
'My_'
'should_'
'bỏ_'
'u_'
'am_'
'life_'
'bất_'
'khỏi_'
'tiền_'
'tạo_'
'từng_'
'years_'
'Cái_'
'tâm_'
'mean_'
'bé_'
'đều_'
'Hãy_'
'la_'
'xin_'
'lời_'
'máy_'
'̉_'
'hành_'
'đồng_'
'tiếp_'
'kết_'
'tớ_'
'tưởng_'
'first_'
'world_'
'vị_'
'bản_'
'work_'
'bố_'
'even_'
'Phải_'
'đổi_'
'vài_'
'any_'
'things_'
'find_'
'" _'
'thay_'
'luôn_'
'thông_'
'. - _'
'vấn_'
'chắc_'
'xảy_'
'trọng_'
'ngoài_'
'bởi_'
'Đi_'
'phòng_'
'phát_'
'why_'
', "_'
'năng_'
':_'
'day_'
'bên_'
'cứu_'
'which_'
'xuống_'
'sát_'
'hợp_'
'tao_'
'love_'
'gái_'
'those_'
'dụng_'
'giống_'
'hãy_'
'still_'
'okay_'
'help_'
'tình_'
'Thank_'
'tính_'
'cháu_'
'trường_'
'Làm_'
'chút_'
'viên_'
'Các_'
'thường_'
'Vì_'
'Where_'
'nhé_'
'hả_'
'giải_'
'cố_'
'sĩ_'
'Just_'
'God_'
'give_'
'lẽ_'
'trả_'
'In_'
'vật_'
'chiến_'
'Vâng_'
'Thật_'
'hội_'
'; _'
'đồ_'
'before_'
'sáng_'
'es_'
'̉ _'
'chơi_'
'well_'
'biệt_'
'phần_'
'tiên_'
'trẻ_'
'around_'
'nhớ_'
'♪ _'
'bọn_'
'3_'
'may_'
'ảnh_'
'again_'
'Đúng_'
'Mr_'
'nhỏ_'
'tế_'
'Get_'
'dùng_'
'Chỉ_'
'bệnh_'
'kẻ_'
'đối_'
'tuyệt_'
'vô_'
'er_'
'quay_'
'Để_'
'ngài_'
'Chúa_'
'Khi_'
'away_'
'Những_'
'talk_'
'long_'
'Is_'
'thought_'
'ba_'
'hệ_'
'đánh_'
'chỗ_'
'Thế_'
'Are_'
'Chào_'
'sorry_'
'nghĩa_'
'thức_'
'cầu_'
'phụ_'
'tiếng_'
'Hắn_'
'vui_'
'Mẹ_'
'kia_'
'Tớ_'
'through_'
'Who_'
'better_'
'đại_'
'new_'
'ơi_'
'trai_'
'Look_'
'put_'
'actually_'
'call_'
'last_'
'anything_'
'lot_'
'sure_'
'hoàn_'
'made_'
'10_'
'Not_'
'Your_'
'đáng_'
'Người_'
'kind_'
'r_'
'thân_'
'home_'
'trình_'
'báo_'
'ly_'
'vừa_'
'lo_'
'thống_'
'loại_'
'quyết_'
'mấy_'
'chẳng_'
'nữ_'
'cảnh_'
'' _'
'sử_'
'kinh_'
'When_'
'đời_'
'điểm_'
'ổn_'
'đẹp_'
'Cảm_'
'place_'
'told_'
'many_'
'mang_'
'chuyển_'
'Bạn_'
'điện_'
'liên_'
'Này_'
'Tại_'
'every_'
'after_'
'chiếc_'
'cha_'
'ever_'
'tối_'
'Còn_'
'thương_'
'cuối_'
'cao_'
'won_'
'Tất_'
'giữ_'
' ?_'
'must_'
'Go_'
'being_'
'bình_'
'night_'
'tra_'
'đừng_'
'name_'
'old_'
'đất_'
'great_'
'chú_'
'doesn_'
'xác_'
'Giờ_'
'ngươi_'
'quả_'
'always_'
'guy_'
'own_'
'vẻ_'
'sợ_'
'l_'
'most_'
'khó_'
'thiết_'
'Good_'
'đứa_'
'gần_'
'done_'
'đủ_'
'giá_'
'liệu_'
'lực_'
'̃ _'
'three_'
'ma_'
'thằng_'
'hoặc_'
'same_'
'p_'
'believe_'
'does_'
'lượng_'
'bây_'
'Điều_'
'chứng_'
'thần_'
'lâu_'
'độ_'
'xa_'
'Ai_'
'5_'
'thêm_'
'nhanh_'
'tập_'
'Can_'
'kế_'
'Mày_'
'nh_'
'also_'
'bay_'
'thưa_'
'Ừ_'
'biến_'
'cửa_'
'ko_'
'keep_'
'might_'
'sir_'
'nothing_'
'chị_'
'feel_'
'trung_'
'course_'
'everything_'
'money_'
'big_'
'diễn_'
'chọn_'
'dân_'
'guys_'
'vệ_'
'rõ_'
'kill_'
'vọng_'
'Cho_'
'ca_'
'mạnh_'
'Please_'
'tử_'
'kể_'
'coming_'
'understand_'
'Trong_'
'left_'
'wanted_'
'000_'
'use_'
'̃_'
'came_'
'hôm_'
'tuổi_'
'chủ_'
'please_'
'another_'
'ít_'
'dưới_'
'looking_'
'mỗi_'
'son_'
'tác_'
'hiệu_'
'minh_'
'Bố_'
'Then_'
'trí_'
'trị_'
'đơn_'
'enough_'
'found_'
'thư_'
'Here_'
'cổ_'
'đình_'
'sức_'
'happened_'
'stop_'
'Mọi_'
'tội_'
'today_'
'đàn_'
'xuất_'
'thử_'
'father_'
'Tao_'
'tượng_'
'wrong_'
'đặt_'
'tương_'
'nghiệm_'
' ♪_'
'Because_'
'called_'
'tranh_'
'Nghe_'
'thuật_'
'bài_'
'cá_'
'Là_'
'ngủ_'
'quyền_'
'men_'
'sư_'
'leave_'
'Ôi_'
'dead_'
'kiểm_'
'tiến_'
'chịu_'
'Chuyện_'
'phố_'
'thú_'
'Uh_'
'Ở_'
'tinh_'
'year_'
'co_'
'Ý_'
' - _'
'4_'
'real_'
'One_'
'talking_'
'bad_'
'dẫn_'
'h_'
'khí_'
'tài_'
'tư_'
'Did_'
'trying_'
'kiếm_'
'dễ_'
'sách_'
'hear_'
'together_'
'else_'
'Bây_'
'chạy_'
'thuốc_'
'đội_'
'idea_'
'mắt_'
'kỳ_'
'care_'
'lòng_'
'Bà_'
'chí_'
'next_'
'someone_'
'giữa_'
'able_'
'20_'
'went_'
'different_'
'phía_'
'khiến_'
'mô_'
'girl_'
'trời_'
'tiêu_'
'For_'
'phép_'
'duy_'
'show_'
'chất_'
'bác_'
'đặc_'
'getting_'
'mở_'
'phá_'
')_'
'̣ _'
'sai_'
'đêm_'
'ask_'
'Nói_'
'Thôi_'
'tục_'
'tháng_'
'To_'
'chắn_'
'mạng_'
'trò_'
'Rồi_'
'ago_'
'trưởng_'
'nhỉ_'
'Chắc_'
'best_'
'đa_'
'bắn_'
'Cám_'
'dự_'
'ngồi_'
'family_'
'cười_'
'uh_'
'fucking_'
'live_'
'ạ_'
'Cha_'
'khoảng_'
'cấp_'
'pháp_'
'Cháu_'
'Maybe_'
'quân_'
'sắp_'
'phút_'
'gây_'
'S_'
'isn_'
'hell_'
'đô_'
'problem_'
'saw_'
'hóa_'
'ch_'
'start_'
'nghiệp_'
'khả_'
'chờ_'
'giáo_'
'house_'
'used_'
'? - _'
'giả_'
'vời_'
'end_'
'few_'
' " _'
'yourself_'
'ty_'
'đấu_'
'đau_'
'job_'
'mind_'
'chân_'
'move_'
'g_'
'đứng_'
'. "_'
'viết_'
'head_'
'try_'
'nổi_'
'lập_'
'trái_'
'remember_'
'dù_'
'Mỹ_'
'vũ_'
'shit_'
'nghệ_'
'da_'
'Right_'
'took_'
'whole_'
'khu_'
'mua_'
'hướng_'
'phân_'
'seen_'
'car_'
'yeah_'
'friend_'
'tuần_'
'cây_'
'chào_'
'phục_'
'sẵn_'
'tệ_'
'sàng_'
'hơi_'
'wasn_'
'điên_'
'stay_'
'room_'
'súng_'
'hoạt_'
'change_'
' '_'
'Laughter_'
'Hello_'
'vi_'
'Như_'
'6_'
'Bọn_'
'maybe_'
'Hi_'
'truyền_'
'already_'
'văn_'
'fine_'
'chi_'
'.._'
'trông_'
'wait_'
'New_'
'thoại_'
'OK_'
'boy_'
'khá_'
'na_'
'uống_'
'di_'
' ..._'
', " _'
'without_'
'luật_'
'each_'
'buổi_'
'thúc_'
'Nhìn_'
'án_'
'part_'
'die_'
'thu_'
'30_'
'Wait_'
'hiểm_'
'Tốt_'
'its_'
'đôi_'
'triển_'
'bàn_'
'cu_'
' !_'
'bit_'
'water_'
'knew_'
'bức_'
'Rất_'
'days_'
'suy_'
'yet_'
'nhiêu_'
'heard_'
'hard_'
'killed_'
'đoán_'
'triệu_'
'mother_'
'giác_'
'chức_'
'sản_'
'Ồ_'
'phản_'
'7_'
'baby_'
'phương_'
'hand_'
'tham_'
'run_'
'phạm_'
'va_'
'À_'
'địa_'
'kiến_'
'woman_'
'As_'
'thủ_'
'pretty_'
'khách_'
'màu_'
'quanh_'
'đợi_'
'-- _'
'k_'
'quái_'
'càng_'
'não_'
'nhiệm_'
'?"_'
'story_'
'xong_'
'--_'
'âm_'
'while_'
'gotta_'
'John_'
'face_'
'quý_'
'quốc_'
'nghiên_'
'means_'
'matter_'
'bán_'
'human_'
'Take_'
'thị_'
' ._'
'point_'
'nguyên_'
'wanna_'
'xấu_'
'khoa_'
'giao_'
'xử_'
'working_'
'myself_'
'đạo_'
'vòng_'
'phim_'
'wouldn_'
'important_'
'school_'
'[_'
'quên_'
'mừng_'
'tàu_'
'máu_'
'bước_'
'trang_'
'dài_'
'Cứ_'
'started_'
'fuck_'
'danh_'
'both_'
'chế_'
'ứng_'
'Of_'
'hôn_'
'gắng_'
'dịch_'
'nghi_'
'person_'
'ers_'
'mặc_'
'đọc_'
'căn_'
'saying_'
'vợ_'
'nice_'
'lạc_'
'thinking_'
'second_'
'đầy_'
'Sau_'
'Bởi_'
'se_'
'Stop_'
'loài_'
'once_'
'gone_'
'mật_'
'such_'
'wife_'
'D_'
'play_'
'Thanks_'
'mục_'
'ready_'
'lost_'
'friends_'
'fact_'
'chia_'
'bring_'
'question_'
'five_'
'nhạc_'
'Ngài_'
'viện_'
'tăng_'
'thi_'
'nạn_'
'Trung_'
'al_'
'Or_'
'between_'
'dành_'
'thanh_'
'cộng_'
'says_'
'Sorry_'
'mai_'
'bóng_'
'chuẩn_'
'thắng_'
'8_'
'riêng_'
'far_'
'morning_'
'kìa_'
'hope_'
'Gì_'
'hề_'
'until_'
'kiểu_'
'yên_'
'lợi_'
'hoạch_'
'nguy_'
'heart_'
'hộ_'
'case_'
'tổ_'
'Have_'
'hại_'
'hạ_'
'four_'
'áo_'
'Đại_'
'thuyết_'
'happen_'
'băng_'
'brother_'
'inside_'
'kids_'
'side_'
'huh_'
'50_'
'coi_'
'true_'
'cánh_'
'ư_'
'kì_'
'alone_'
'gã_'
'100_'
'less_'
'nằm_'
'thuộc_'
'body_'
'meet_'
'C_'
'lạ_'
'open_'
'T_'
'dựng_'
'khốn_'
'minutes_'
'power_'
'thoát_'
'dữ_'
'độc_'
'rời_'
'nhóm_'
'making_'
'xây_'
'rối_'
'giản_'
'"._'
'tim_'
'tấn_'
'đo_'
'dấu_'
'vùng_'
'Đã_'
'lịch_'
'15_'
'Chị_'
'makes_'
'anyone_'
'women_'
'business_'
'children_'
'Tell_'
'mơ_'
'suốt_'
'dụ_'
'mức_'
'biển_'
'khủng_'
'Ngươi_'
'guess_'
'tức_'
'Like_'
'turn_'
'Ah_'
'under_'
'times_'
'ha_'
'chó_'
'couldn_'
' ... _'
'stuff_'
'hưởng_'
'hạnh_'
'Mình_'
' #_'
'tích_'
'fight_'
'Hai_'
'Hay_'
'xã_'
'lai_'
'dạy_'
'These_'
'number_'
'comes_'
'um_'
'đá_'
'thiên_'
'mong_'
'city_'
'cực_'
'haven_'
'wants_'
'trợ_'
'Tên_'
'Nhanh_'
'Nên_'
'having_'
'probably_'
'brain_'
'phẩm_'
'tù_'
'sớm_'
'high_'
'hồ_'
'tiệt_'
'đóng_'
'phone_'
'gave_'
'since_'
'hy_'
'Give_'
'dối_'
'word_'
'9_'
'yes_'
'eyes_'
'asked_'
'mối_'
'everyone_'
'thê_'
'dừng_'
'Với_'
'light_'
'later_'
'hồi_'
'chàng_'
'thất_'
'moment_'
'taking_'
'nhập_'
'set_'
'vực_'
'Đưa_'
'12_'
'happy_'
'soon_'
'half_'
'kid_'
'gửi_'
'Sẽ_'
'death_'
'hands_'
'Jack_'
'country_'
'chống_'
'nghỉ_'
'cáo_'
'thậm_'
'ràng_'
'system_'
'biểu_'
'khỏe_'
'chung_'
'hours_'
'door_'
'York_'
'lắng_'
'exactly_'
'young_'
'deal_'
'bánh_'
'Từ_'
'le_'
'beautiful_'
'đê_'
'Quốc_'
'già_'
'See_'
'reason_'
'lệ_'
' , _'
'Chính_'
'knows_'
'Tiếng_'
'dậy_'
'sở_'
';#_'
'bí_'
'Dad_'
'Chú_'
'line_'
'giỏi_'
'against_'
'ghi_'
'lives_'
'ngôi_'
'sâu_'
'hứa_'
'hold_'
'thẳng_'
'tĩnh_'
'ban_'
'blood_'
'Frank_'
'pha_'
']_'
'lệnh_'
'nguồn_'
'diện_'
'ngờ_'
'close_'
'chu_'
'looks_'
'rest_'
'hạn_'
'worry_'
'ngu_'
'tiết_'
'percent_'
'phủ_'
'E_'
'lựa_'
'en_'
'chance_'
'game_'
'gi_'
'đoạn_'
'tonight_'
'million_'
'ain_'
'At_'
'become_'
'yếu_'
'crazy_'
'thận_'
'quen_'
'khăn_'
'listen_'
'goes_'
'ion_'
'quite_'
'thank_'
'food_'
'đỡ_'
'lái_'
'đen_'
'gets_'
'đám_'
'tồn_'
'ngon_'
'hit_'
'hurt_'
'safe_'
'rượu_'
'read_'
'Dù_'
'trốn_'
'giảm_'
'luận_'
'least_'
'future_'
'dục_'
'sơ_'
'Sự_'
'Cũng_'
'kéo_'
'nhảy_'
'war_'
'xét_'
'With_'
'shot_'
'Listen_'
'child_'
'His_'
'lớp_'
'kích_'
'mời_'
'late_'
'xúc_'
'minute_'
'pay_'
'00_'
'ích_'
'trách_'
'kỹ_'
'almost_'
'trải_'
'Thưa_'
'supposed_'
'dạng_'
'Đến_'
'behind_'
'244_'
'ngốc_'
'mắn_'
'hoa_'
'phí_'
'save_'
'bào_'
'ánh_'
'buồn_'
'eat_'
'ngăn_'
'cụ_'
'free_'
'Will_'
'small_'
'Really_'
'fire_'
'món_'
'easy_'
'vượt_'
'alive_'
'Dr_'
'dây_'
'answer_'
'age_'
'Our_'
'phúc_'
'Tuyệt_'
'months_'
'chấp_'
'phi_'
'Ba_'
'Wow_'
'Ngay_'
'watch_'
'tomorrow_'
'needs_'
'rs_'
'Applause_'
'mãi_'
'ho_'
'Sir_'
'bại_'
'sếp_'
'nửa_'
'nổ_'
'cạnh_'
'nhóc_'
'mine_'
'Nothing_'
'ass_'
'chúa_'
'though_'
'walk_'
'Lúc_'
'đem_'
'khắp_'
'đùa_'
'nền_'
'cũ_'
'cử_'
'six_'
'đảm_'
'quy_'
'On_'
'273_'
'chăm_'
'cắt_'
'speak_'
'Chết_'
'chuyên_'
'cư_'
'thiếu_'
'sense_'
'cuốn_'
'cung_'
'Vào_'
'," _'
'O_'
'kiện_'
'ngoại_'
'Công_'
'th_'
'information_'
'chương_'
'dad_'
'lửa_'
'ổng_'
'lí_'
'trust_'
'happens_'
'afraid_'
'gun_'
'sort_'
'trận_'
'living_'
'control_'
'daughter_'
'front_'
'toán_'
'nghị_'
'soát_'
'Cười_'
'Chẳng_'
'full_'
'đổ_'
'bữa_'
'book_'
'team_'
'tha_'
'couple_'
'tai_'
'possible_'
'lầm_'
'rộng_'
'tránh_'
'sleep_'
'anymore_'
'thù_'
'order_'
'nhắc_'
'tried_'
'met_'
'tiếc_'
'trừ_'
'Chờ_'
'hát_'
'ký_'
'plan_'
'truth_'
'outside_'
'hi_'
'chồng_'
'% _'
'ngạc_'
'week_'
'nhờ_'
'Thực_'
'cause_'
'tận_'
': "_'
'nối_'
'đuổi_'
'B_'
'Ngày_'
'Fuck_'
'ghét_'
'news_'
'died_'
'mẫu_'
'giấy_'
'tấm_'
'somebody_'
'clear_'
'hữu_'
'brought_'
'ước_'
'kỷ_'
'using_'
'Chúc_'
'áp_'
'sang_'
'224_'
'tạp_'
'bi_'
'! - _'
'top_'
'Việc_'
'past_'
'town_'
'kiếp_'
'hoàng_'
'chữa_'
'Hôm_'
'Excuse_'
'hầu_'
'trăm_'
'hậu_'
'telling_'
'sa_'
'learn_'
'rô_'
'linh_'
'Whoa_'
'fun_'
'police_'
'wish_'
'đông_'
'nghiêm_'
'vận_'
'xung_'
'lũ_'
'vàng_'
'tòa_'
'ơ_'
'Lại_'
'ts_'
'buộc_'
'đươ_'
'everybody_'
'0_'
'Y_'
'Chưa_'
'khóa_'
'cannot_'
'v_'
'Thứ_'
'building_'
'cut_'
'Jesus_'
'video_'
'khai_'
'break_'
'40_'
'Cả_'
'quần_'
'xanh_'
'waiting_'
'Sam_'
'stand_'
'nỗi_'
'words_'
'Hold_'
'ô_'
'đột_'
'Theo_'
'sắc_'
'ẩn_'
'nóng_'
'aren_'
'giây_'
'tá_'
'hủy_'
'ngữ_'
'ies_'
'khám_'
'hẹn_'
'whatever_'
'chuyến_'
'data_'
'sóc_'
'Mấy_'
'yours_'
'Um_'
'Some_'
'along_'
'Ra_'
'Nhà_'
'ví_'
'] _'
'cưới_'
'hoá_'
'taken_'
'hẳn_'
'U_'
'"?_'
'land_'
'drink_'
'đạt_'
'trụ_'
'girls_'
'tổng_'
'Two_'
'Bác_'
'mái_'
'across_'
'ngựa_'
'ce_'
'trực_'
' (_'
'kính_'
'running_'
'thuyền_'
'Mà_'
'M_'
'Dừng_'
'tín_'
'James_'
'vết_'
'Which_'
'mắc_'
'N_'
'chừng_'
'tầm_'
'either_'
'phóng_'
'check_'
'rơi_'
'phù_'
'Phi_'
'mom_'
'Thì_'
'dõi_'
'space_'
'khắc_'
'lose_'
'lính_'
'Về_'
'cầm_'
'môi_'
'thuận_'
'parents_'
'others_'
'du_'
'thái_'
'Thằng_'
'Miss_'
'example_'
'Man_'
'lạnh_'
'lưu_'
'Earth_'
'company_'
'xếp_'
'Lần_'
'phiền_'
'fast_'
'L_'
'Nào_'
'lãnh_'
'chụp_'
'sit_'
'hey_'
'sound_'
'party_'
'Sure_'
'sửa_'
'happening_'
'Mom_'
'ngươ_'
'figure_'
'đạn_'
'husband_'
'Coi_'
'quản_'
'After_'
'nặng_'
'loạn_'
'known_'
'trouble_'
'office_'
'piece_'
'bitch_'
'Trước_'
'An_'
'thí_'
'nuôi_'
'trạng_'
'sent_'
'ahead_'
'Would_'
'luyện_'
'tiệc_'
'ne_'
'May_'
'nội_'
'hứng_'
'ie_'
'send_'
'Vỗ_'
'David_'
'technology_'
'đỏ_'
'looked_'
'Tây_'
'trắng_'
'Đức_'
'st_'
'Michael_'
'feeling_'
'moving_'
'Keep_'
'works_'
'hour_'
'questions_'
'sister_'
'thịt_'
'ry_'
'tôn_'
'ways_'
'thầy_'
'đích_'
'/_'
'cà_'
'boys_'
'buy_'
'bed_'
'feet_'
'Tạm_'
'nàng_'
'simple_'
'single_'
'black_'
'Even_'
'chữ_'
'binh_'
'longer_'
'x_'
'Peter_'
'rắc_'
'vẽ_'
'11_'
'chả_'
'cơn_'
'red_'
'choice_'
'đẩy_'
'mau_'
'trại_'
'lá_'
'Hmm_'
'lộ_'
'dàng_'
'Bỏ_'
'Great_'
'lễ_'
'tồi_'
'Shit_'
'tốc_'
'asking_'
'túi_'
'Nam_'
'Help_'
'Xem_'
'cướp_'
'hate_'
'air_'
'biê_'
'forget_'
'sân_'
'picture_'
'hút_'
'hộp_'
'seems_'
'sẻ_'
'giận_'
'hot_'
'bầu_'
'đảo_'
'Trời_'
'dám_'
'Captain_'
'miệng_'
'history_'
'hòa_'
'Lord_'
'Put_'
'promise_'
'ones_'
'Me_'
'tầng_'
'ti_'
'mi_'
'doanh_'
'cool_'
'pick_'
'hạt_'
'Stay_'
'im_'
'king_'
'de_'
'worked_'
'Đồ_'
'đoàn_'
'săn_'
'phức_'
'huy_'
'Ben_'
'create_'
'H'
' $_'
'Bắt_'
'te_'
'vâ_'
'changed_'
'thâ_'
'mã_'
'ngàn_'
'needed_'
'energy_'
'sạch_'
'đằng_'
'chim_'
'...._'
'takes_'
'Mm_'
'Trái_'
'thăm_'
'tóc_'
'phê_'
'married_'
'. (_'
'shoot_'
'dòng_'
'tụi_'
'25_'
'House_'
'H_'
'himself_'
'mê_'
'lừa_'
'vơ_'
'imagine_'
'weeks_'
'Hoặc_'
'thiện_'
'ship_'
'nhật_'
'Harry_'
'American_'
'tố_'
'niềm_'
'tiện_'
'vua_'
'doctor_'
'chiều_'
'Ha_'
'ngược_'
'given_'
'touch_'
'chạm_'
'entire_'
'win_'
'seem_'
'ic_'
'cám_'
'By_'
'ác_'
'Bình_'
'Mike_'
'King_'
'People_'
'funny_'
'dung_'
'phong_'
'dog_'
'phận_'
'dần_'
'eye_'
'sót_'
'sex_'
'siêu_'
'damn_'
'hảo_'
'Huh_'
'nguyện_'
'rừng_'
'experience_'
'interesting_'
'miss_'
'Jim_'
'within_'
'Very_'
'L'
'tường_'
'Everything_'
'z_'
'amazing_'
'hùng_'
'câ_'
'Bắc_'
'worth_'
'felt_'
'protect_'
'đâ_'
'ung_'
'rather_'
'music_'
'build_'
'George_'
'Move_'
'government_'
'G_'
'bang_'
'drive_'
'Trông_'
'lành_'
'First_'
'Hoa_'
'ground_'
'finally_'
'tỉnh_'
'lối_'
'Tom_'
'La_'
'cận_'
'tờ_'
'leaving_'
'rút_'
'Be_'
'hồn_'
'ons_'
'Got_'
'dollars_'
'oh_'
'trộm_'
'Ok_'
'Mrs_'
'vai_'
' _'
'playing_'
'Thấy_'
'sick_'
'thở_'
'ngôn_'
'khẩu_'
'serious_'
'R_'
'khởi_'
'Charlie_'
'khiển_'
'nhắn_'
'lặng_'
'niệm_'
'stupid_'
'often_'
'From_'
'mùa_'
'law_'
'special_'
'M'
'seeing_'
'tắc_'
'white_'
'thừa_'
'đói_'
'Those_'
'thập_'
'nè_'
'turned_'
'núi_'
'thuê_'
'...?_'
'share_'
'ring_'
'200_'
'\u_'
'sometimes_'
'bom_'
'ngân_'
'Tổng_'
'problems_'
'nhiệt_'
'bạo_'
'state_'
'tái_'
'thả_'
'decided_'
'Nice_'
'Every_'
'Mỗi_'
'shall_'
'Bye_'
'follow_'
'quỷ_'
'Only_'
'thơ_'
'.. _'
'ia_'
'tộc_'
'bận_'
'early_'
'Does_'
'cẩn_'
'Khoan_'
'ah_'
'nha_'
'tỉ_'
'born_'
'completely_'
'bốn_'
'TV_'
'cell_'
'Cuộc_'
'Đợi_'
'Something_'
'trúc_'
'tiểu_'
'anybody_'
'dựa_'
'18_'
'T'
'cải_'
'Giống_'
'hấp_'
'hào_'
'dương_'
'public_'
'nhiễm_'
'field_'
'Cảnh_'
'planet_'
'khổ_'
'lão_'
'xuyên_'
'step_'
'# _'
'shouldn_'
'tàn_'
'tô_'
'đón_'
'scared_'
'Châu_'
'Shut_'
'pain_'
'b_'
'ấn_'
'thách_'
'cold_'
'Ma_'
'Đứng_'
'ngừng_'
'test_'
'ga_'
'giving_'
'cưng_'
'hang_'
'ya_'
'lao_'
'group_'
'song_'
'social_'
'cân_'
's'
'diệt_'
'computer_'
'đống_'
'giấc_'
'Tin_'
'Joe_'
'lady_'
'giấu_'
'return_'
'Rachel_'
'Internet_'
'perfect_'
'science_'
'write_'
'thấp_'
'ation_'
'ống_'
'self_'
'Câu_'
'tổn_'
'vỡ_'
'nắm_'
'60_'
'lie_'
'quán_'
'â_'
'ble_'
'Joey_'
'mùi_'
'nam_'
'hỏng_'
'B'
'thỏa_'
'đèn_'
'Tối_'
'Claire_'
'bạc_'
'luck_'
'Ross_'
'Rõ_'
'K_'
'kho_'
'fall_'
'America_'
'nợ_'
'đập_'
'robot_'
'led_'
'hospital_'
'learned_'
'strong_'
'chảy_'
'security_'
'sóng_'
'clean_'
'500_'
'key_'
'Vẫn_'
'Bộ_'
'whether_'
'built_'
'́._'
'tí_'
'secret_'
'ment_'
'G'
'fear_'
'dream_'
'trao_'
'Tới_'
'dinner_'
'chặn_'
'anyway_'
'Năm_'
'seven_'
'm'
'health_'
'Never_'
'Bảo_'
'màn_'
'chặt_'
'box_'
'message_'
'hài_'
'nt_'
'gấp_'
'tắm_'
'giường_'
'cấu_'
'level_'
'instead_'
'Bất_'
'worse_'
'machine_'
'Mary_'
'eight_'
'Alex_'
'ous_'
'somewhere_'
'Tránh_'
'tắt_'
'explain_'
'middle_'
'per_'
'xứng_'
'lead_'
') (_'
'sổ_'
'lĩnh_'
'Oliver_'
'boss_'
'đe_'
'ảo_'
'process_'
'Lấy_'
'thang_'
'f_'
'tải_'
'TED_'
'form_'
'United_'
'low_'
'chậm_'
'tả_'
'khoản_'
'lỗ_'
'hair_'
'ice_'
'Paul_'
'ity_'
'weren_'
'camera_'
'đào_'
'ting_'
'catch_'
'trùng_'
'tạm_'
'n'
'ton_'
'." _'
'Muốn_'
'tan_'
'hãi_'
'Pháp_'
'meeting_'
'chiếu_'
'P_'
'trấn_'
'dính_'
'Could_'
'road_'
'truy_'
'shut_'
'châu_'
'giàu_'
'act_'
'ourselves_'
'area_'
'Any_'
'meant_'
'became_'
'cells_'
'dặm_'
'tion_'
'stories_'
'themselves_'
'24_'
'poor_'
'loved_'
'bar_'
'ls_'
'bè_'
'spend_'
'14_'
'mẽ_'
'nobody_'
'nông_'
'Đầu_'
'kịch_'
'hoang_'
'đức_'
'Đ'
'thề_'
'khóc_'
'Make_'
'vĩ_'
'chuột_'
'Mau_'
'dark_'
'Hoàng_'
'tỷ_'
'ns_'
'che_'
'thưởng_'
'ngành_'
'Damn_'
'attack_'
'kim_'
'chán_'
'xinh_'
'dọa_'
'túc_'
'quà_'
'pull_'
'ghế_'
'Her_'
'? "_'
'watching_'
'lưng_'
'S'
'street_'
'ngắn_'
'difference_'
'Trên_'
'DNA_'
'sounds_'
'London_'
'Three_'
'Chu_'
'list_'
'bò_'
'cập_'
'thiệu_'
'certain_'
'sông_'
'Bill_'
'Nhiều_'
'16_'
'đáp_'
'... - _'
'ám_'
'thanks_'
'lương_'
'thủy_'
'dangerous_'
'art_'
'personal_'
'Cố_'
'Cứu_'
'cancer_'
'design_'
'calling_'
'nh'
'giám_'
'FBI_'
'h'
'during_'
'V_'
'lẫn_'
'Paris_'
'dị_'
'muộn_'
'miễn_'
'niên_'
'short_'
'D'
'Tiếp_'
'Tiến_'
'ten_'
'dầu_'
'spent_'
'sign_'
'kêu_'
'States_'
'b'
'Ê_'
'voice_'
'Bob_'
'thua_'
'table_'
'chứa_'
'el_'
'countries_'
'President_'
'mạch_'
'nghèo_'
'City_'
'fish_'
'X_'
'fly_'
'attention_'
'á_'
'Ko_'
'xương_'
'places_'
'Đang_'
'cháy_'
'normal_'
'Quá_'
'chiếm_'
'Fine_'
'đài_'
't'
'lô_'
'lucky_'
'Nga_'
'80_'
'expect_'
'Nobody_'
'Biết_'
'difficult_'
'deep_'
'tỏ_'
'dọn_'
'Was_'
'tán_'
'khối_'
'cục_'
'miles_'
'hổ_'
'Father_'
'month_'
'dear_'
'kept_'
'Ấn_'
'v'
'ness_'
'study_'
'Tìm_'
'third_'
'nghề_'
'community_'
'xu_'
'straight_'
'wonderful_'
'Mark_'
'cờ_'
'ran_'
'nhầm_'
'giơ_'
'ted_'
'train_'
'situation_'
'sitting_'
'research_'
'tung_'
'13_'
'ideas_'
'class_'
'243_'
'Everyone_'
'risk_'
'ate_'
'Thần_'
'mouth_'
'hô_'
'd'
'kỉ_'
'fault_'
'V'
'Mmm_'
'paper_'
'thờ_'
'họp_'
'giọng_'
'ride_'
'Watch_'
'Tuy_'
'phẫu_'
'Vấn_'
'realize_'
'missing_'
'chối_'
'forward_'
'r'
'Chạy_'
'gắn_'
'cản_'
'quickly_'
'khứ_'
'Cuối_'
'language_'
'honey_'
'cỡ_'
'môn_'
'bet_'
'kĩ_'
'hầm_'
'Quay_'
'17_'
'Whatever_'
'gió_'
'dance_'
'Cổ_'
'góc_'
'lan_'
'C'
'ném_'
'Danny_'
'mảnh_'
'mệt_'
'hmm_'
'ch'
'ball_'
'gốc_'
'huge_'
'gồm_'
'itself_'
'ro_'
'Over_'
'killing_'
'Everybody_'
'cứng_'
'Jimmy_'
'", _'
'weird_'
'saved_'
'nhẫn_'
'billion_'
'Master_'
'drop_'
'432_'
'powerful_'
'Someone_'
'ey_'
'ors_'
'perhaps_'
'ling_'
'animals_'
'Nhân_'
'ủng_'
'Dĩ_'
'evidence_'
'boat_'
'g'
'w_'
'thai_'
'phán_'
'Chris_'
'Daddy_'
'ke_'
'chỉnh_'
'hỗ_'
'Đất_'
'Bằng_'
'virus_'
'beat_'
'date_'
'seconds_'
'floor_'
'thảm_'
'talked_'
'Barry_'
'Đông_'
'caught_'
'English_'
'Africa_'
'tặng_'
'large_'
'th'
'tướng_'
'thảo_'
'Hy_'
'thải_'
'’_'
'position_'
'mũi_'
'kê_'
'Gọi_'
'Giữ_'
'dao_'
'grow_'
'x'
'nature_'
'họa_'
'Remember_'
'Giáo_'
'till_'
'Think_'
'trống_'
'nhẹ_'
'coffee_'
'anywhere_'
'? !_'
'interested_'
'l'
'fighting_'
'upon_'
'offer_'
'mistake_'
'Max_'
'cover_'
'F_'
'Ch'
'blue_'
'vê_'
'hundred_'
'project_'
'bày_'
'smart_'
'hư_'
'Cách_'
'Chà_'
'úy_'
'force_'
'điệp_'
'present_'
'kidding_'
'thoải_'
'quang_'
'rules_'
'Cause_'
'teach_'
'nô_'
'chìa_'
'ss_'
'wonder_'
'welcome_'
'gà_'
'hoảng_'
'bag_'
'bụng_'
'Actually_'
'Ổng_'
'beginning_'
'standing_'
'created_'
'Kỳ_'
'patient_'
'90_'
'trễ_'
'prison_'
'đốc_'
'N'
'Mở_'
'Kim_'
'ninh_'
'Thiên_'
'wall_'
'Hình_'
'ok_'
'report_'
'peace_'
'turns_'
'thụ_'
'sáu_'
'Big_'
'mộ_'
'chúc_'
'plane_'
'tri_'
'gen_'
'đựng_'
'mệnh_'
'sweet_'
'cặp_'
'ấm_'
'ter_'
'Đồng_'
'About_'
'forever_'
'Welcome_'
'pass_'
'giam_'
'Say_'
'vinh_'
'chấm_'
'!"_'
'ả_'
'non_'
'books_'
'glad_'
'terrible_'
'board_'
'lãng_'
'reach_'
'khiếp_'
'quyển_'
'Của_'
'Đôi_'
'Sarah_'
'lived_'
'gan_'
'biên_'
'đòi_'
'bơi_'
'near_'
'ar_'
'Red_'
'support_'
'handle_'
'paid_'
'throw_'
'cãi_'
'đỉnh_'
'rich_'
'Long_'
'Henry_'
'worried_'
'common_'
'R'
'điê_'
'Lên_'
'simply_'
'sea_'
'rác_'
'careful_'
'walking_'
'Bao_'
'sạn_'
'chóng_'
'universe_'
'thánh_'
'đ'
'Hiểu_'
'300_'
'đua_'
'giai_'
'K'
'sun_'
'Ít_'
'xưa_'
'ép_'
'rồ_'
'lying_'
'choose_'
'moved_'
'lồ_'
'Im_'
'starting_'
'bật_'
'Thời_'
'dying_'
'đăng_'
'khuôn_'
'Kể_'
'Emily_'
'đốt_'
'J_'
'totally_'
'stopped_'
'cost_'
'li_'
'gold_'
'tuyến_'
'Ngồi_'
'c'
'quick_'
'murder_'
'khổng_'
'phiếu_'
'lục_'
'hole_'
'phạt_'
'ngục_'
'làng_'
'Thành_'
'phỏng_'
'Tình_'
'phu_'
'foot_'
'Liên_'
'mission_'
'thinks_'
'khỉ_'
'Perhaps_'
'răng_'
'China_'
'ng'
'Leave_'
'thousands_'
'disease_'
'os_'
'ngang_'
'Tự_'
'vâng_'
'khuyên_'
'broke_'
'finish_'
'Độ_'
'Đáng_'
'Open_'
'ds_'
'căng_'
'bờ_'
'Thái_'
'Nhật_'
'Đội_'
'join_'
'code_'
'Nơi_'
'Call_'
'tốn_'
'type_'
'bảng_'
'Nhớ_'
'basically_'
'Ooh_'
'fix_'
'wrote_'
'natural_'
'More_'
'muô_'
'access_'
'view_'
'trì_'
'bo_'
'students_'
'liệt_'
'global_'
'ngại_'
'Liệu_'
'est_'
'Back_'
'thẩm_'
'Richard_'
'Monica_'
'gentlemen_'
'Once_'
'whoa_'
'Ray_'
'wake_'
'size_'
'gives_'
'bigger_'
'chủng_'
'chư_'
'tách_'
'sell_'
'bội_'
'ine_'
'ions_'
'based_'
'sing_'
'numbers_'
'les_'
'kí_'
'Hurry_'
'đeo_'
'San_'
'local_'
'Queen_'
'huynh_'
'hung_'
'Hả_'
'ability_'
'wear_'
'named_'
'Isn_'
'green_'
'White_'
'stick_'
'army_'
'model_'
'Chandler_'
'Yo_'
'cắp_'
'YOU_'
'lưới_'
'begin_'
'General_'
'society_'
'Bắn_'
'ings_'
'thợ_'
'mèo_'
'đâm_'
'broken_'
'service_'
'Cơ_'
'thiệt_'
'ck_'
'Christ_'
'Kẻ_'
'sh_'
'Mexico_'
'sky_'
'ức_'
'buddy_'
'involved_'
'Âu_'
'Cẩn_'
'bãi_'
'species_'
'Ban_'
'record_'
'relationship_'
'memory_'
'beyond_'
'radio_'
'ngọn_'
'medical_'
'X'
'xâm_'
'Sara_'
'tóm_'
'hide_'
'thượng_'
'opportunity_'
'ngoan_'
'movie_'
'crime_'
'shows_'
'respect_'
'realized_'
'Robert_'
'president_'
'khoan_'
'Mặc_'
'birthday_'
'Mặt_'
'Dave_'
'tu_'
'century_'
'Lee_'
'horse_'
'óc_'
'Time_'
'Ca_'
'mad_'
'humans_'
'master_'
'card_'
'lots_'
'70_'
'tired_'
'smell_'
'hò_'
'count_'
'clothes_'
'bank_'
'North_'
'Số_'
'kẹt_'
'thousand_'
'hối_'
'Nick_'
'lab_'
'mềm_'
'địch_'
'Chinese_'
'arm_'
'miếng_'
'ghê_'
'Looks_'
'strange_'
'giày_'
'showed_'
'Bên_'
'wedding_'
'impossible_'
'Steve_'
'hasn_'
'South_'
'honor_'
'nce_'
'ks_'
'ge_'
'drug_'
'Hồi_'
'wearing_'
'putting_'
'ngón_'
'tr'
'Đủ_'
'charge_'
'mông_'
'[ _'
'Jane_'
'Charles_'
'began_'
'feels_'
'contact_'
'Washington_'
'phiên_'
'magic_'
'decision_'
'cop_'
'ky_'
'dưỡng_'
'none_'
'Giết_'
'Ổn_'
'taught_'
'missed_'
'god_'
'. -_'
'trưa_'
'thẻ_'
'learning_'
'Hiện_'
'Ờ_'
'ful_'
'cú_'
'busy_'
'góp_'
'mù_'
'ong_'
'animal_'
'gas_'
'proud_'
'Martin_'
'Hội_'
'quiet_'
'favorite_'
'Giúp_'
'sô_'
'blow_'
'absolutely_'
'điệu_'
'ves_'
'certainly_'
'ally_'
'education_'
'Nè_'
'ley_'
'chai_'
'lôi_'
'kinds_'
'kịp_'
'Carl_'
'particular_'
'Thậm_'
'225_'
'swear_'
'Co_'
'hiệp_'
'evening_'
'slow_'
'market_'
'Sometimes_'
'mưa_'
'sỹ_'
'calls_'
'phổ_'
'nine_'
'everywhere_'
'tuyên_'
'window_'
'rửa_'
'map_'
'huấn_'
'drugs_'
'track_'
'further_'
'skin_'
'Sẵn_'
'Today_'
'Chiến_'
'vốn_'
'allow_'
'móc_'
'ngã_'
'Adam_'
'suppose_'
'Billy_'
'parts_'
'fair_'
'bus_'
'tree_'
'hero_'
'quảng_'
'Tommy_'
'likely_'
'gift_'
'Vài_'
'Tụi_'
'vững_'
'action_'
'program_'
'Gặp_'
'wind_'
'Ví_'
'weapons_'
'speed_'
'oil_'
'killer_'
'finished_'
'Kết_'
'earth_'
'250_'
'kiss_'
'vân_'
'fell_'
'nâng_'
'Gần_'
'Jake_'
'Chuẩn_'
'Tony_'
'college_'
'Run_'
'agree_'
'treo_'
'station_'
'mát_'
'Mother_'
'seat_'
'kh'
'bẩn_'
'partner_'
'canh_'
'7871_'
'stuck_'
'continue_'
'Anna_'
'California_'
'holding_'
'tiê_'
'lộn_'
'Eddie_'
'tây_'
'khoẻ_'
'hoại_'
'Bị_'
'worst_'
'private_'
'changes_'
'Anything_'
'soul_'
'gương_'
'rate_'
'Rome_'
'listening_'
'bếp_'
'Ô_'
'Most_'
'bottom_'
'above_'
'web_'
'sứ_'
'Since_'
'Gia_'
'Daniel_'
'mạo_'
'Bring_'
'systems_'
'carry_'
'Am_'
'accident_'
'reality_'
'writing_'
'vỗ_'
'mess_'
'ING_'
'letter_'
'Google_'
'trứng_'
'Phòng_'
'bia_'
'Last_'
'image_'
'Ăn_'
'waste_'
'environment_'
'terms_'
'cops_'
'nghìn_'
'khích_'
'cóc_'
'bunch_'
'value_'
'Bản_'
'bomb_'
'vương_'
'bought_'
'chuyê_'
'Five_'
'bodies_'
'World_'
'India_'
'liều_'
'Máy_'
'guns_'
'yesterday_'
'nấu_'
'nư_'
'trip_'
'nhâ_'
'ent_'
'pleasure_'
'liền_'
'Aah_'
'rock_'
'et_'
'♪_'
'West_'
'lang_'
'allowed_'
'Cùng_'
'gi'
'evil_'
'price_'
'conversation_'
'21_'
'19_'
'stage_'
'phó_'
'military_'
'marry_'
'survive_'
'dĩ_'
'Va_'
'nga_'
'cất_'
'cam_'
'Try_'
'race_'
'đương_'
'Đâu_'
'van_'
'Đường_'
'doubt_'
'training_'
'sốt_'
'đụng_'
'tells_'
'nát_'
'thăng_'
'round_'
'fully_'
'bề_'
'passed_'
'ổ_'
'issue_'
'focus_'
'dứt_'
'amount_'
'ant_'
'thám_'
'major_'
'ive_'
'kháng_'
' ♫ ♫ _'
'cổng_'
' '
'unless_'
'online_'
'driving_'
'ngực_'
'kém_'
'political_'
'Didn_'
'lơ_'
'William_'
'Before_'
'tròn_'
'store_'
'notice_'
'ki_'
'calm_'
'Still_'
'Thomas_'
'khô_'
')}_'
'bye_'
'45_'
'tic_'
'cars_'
'address_'
', '_'
'Dean_'
'THE_'
'Johnny_'
'đậu_'
'incredible_'
'faster_'
'diệu_'
'enemy_'
'fit_'
'prove_'
'willing_'
'hè_'
'burn_'
'W_'
'visit_'
'French_'
'Kevin_'
'khát_'
'ưu_'
'ka_'
'kh_'
'surprise_'
'hungry_'
'gợi_'
'đồn_'
'dường_'
'Sit_'
'target_'
'Chủ_'
'trăng_'
'Hết_'
'interest_'
'growing_'
'apartment_'
'̀._'
'film_'
'Matt_'
'xoay_'
'towards_'
'figured_'
'escape_'
'Little_'
'push_'
'names_'
'helped_'
'weapon_'
'suất_'
'teacher_'
'tảng_'
'mo_'
'games_'
'Thay_'
'Another_'
'path_'
'đếm_'
'reading_'
'definitely_'
'arms_'
'final_'
'decide_'
'Thầy_'
'Arthur_'
'Thử_'
'Al_'
'giành_'
'ocean_'
'tơ_'
'sword_'
'patients_'
'eating_'
'dâm_'
'changing_'
'đớn_'
'pin_'
'knowledge_'
'Chỗ_'
'truly_'
'tough_'
'scene_'
'following_'
'Should_'
'ps_'
'cross_'
'chôn_'
'pictures_'
'color_'
'Scott_'
'Thượng_'
'Nha_'
'Christmas_'
'; #_'
'mét_'
'honest_'
'Nghĩa_'
'vẩn_'
'keeping_'
'stone_'
'mò_'
'lies_'
'dy_'
'Đối_'
'immediately_'
'buôn_'
'Shh_'
'scale_'
'thùng_'
'quỹ_'
'Đặc_'
'su_'
'Nước_'
'helping_'
'phối_'
'culture_'
'Black_'
'favor_'
'especially_'
'truck_'
'discovered_'
'Honey_'
'Dan_'
'., _'
'lặp_'
'Holy_'
'viê_'
'destroy_'
'điển_'
'Cần_'
'theory_'
'search_'
'angry_'
'village_'
'owe_'
'physical_'
'except_'
'appreciate_'
'pressure_'
'river_'
'obviously_'
'dũng_'
'lines_'
'đế_'
'fool_'
'Next_'
'táo_'
'khuẩn_'
'viễn_'
'gay_'
'onto_'
'lỡ_'
'kha_'
'tiny_'
'que_'
'ph'
'thèm_'
'khẩn_'
'ham_'
'challenge_'
'Agent_'
'trà_'
'legs_'
'Somebody_'
'Xe_'
'closer_'
'usually_'
'Xong_'
''._'
'ồn_'
'Ph'
'accept_'
'mưu_'
'Vô_'
'vỏ_'
'battle_'
'speaking_'
'media_'
'Too_'
'ê_'
'nhắm_'
'cy_'
'center_'
'bastard_'
'companies_'
': " _'
'treat_'
'huống_'
'Thánh_'
'Hầu_'
'vé_'
'sad_'
'túy_'
'rồng_'
'cities_'
'Thanh_'
'mate_'
'loạt_'
'CA_'
'travel_'
'held_'
'lát_'
'Phần_'
'press_'
'dude_'
'orders_'
'mồm_'
'behavior_'
'236_'
'{\\_'
'tống_'
'goddamn_'
'bridge_'
'khái_'
'forgot_'
'gác_'
'ze_'
'starts_'
'bird_'
'cấm_'
'biggest_'
'tước_'
'- "_'
'cốc_'
'trần_'
'millions_'
'ian_'
'Mời_'
'đạp_'
'population_'
'nhi_'
'Brian_'
'bão_'
'lông_'
'Hơn_'
'suit_'
'Ừm_'
'xạ_'
'spot_'
'girlfriend_'
'Trả_'
'vớ_'
'leg_'
'enjoy_'
'id_'
'drunk_'
'giãn_'
'cat_'
'Anyway_'
'likes_'
'complete_'
'Phoebe_'
'lay_'
'Quân_'
'several_'
'Vợ_'
'Check_'
'star_'
'hotel_'
'fuckin_'
'Tiền_'
'bear_'
'Ow_'
'thổi_'
'lượt_'
'Vụ_'
'trôi_'
'sàn_'
'kín_'
'idiot_'
'twice_'
'surface_'
'purpose_'
'ngơi_'
'400_'
'rd_'
'glass_'
'Show_'
'huyết_'
'mạc_'
'Lý_'
'bê_'
'apart_'
'Out_'
'tùy_'
'journey_'
'finding_'
'carbon_'
'dư_'
'hurry_'
'Four_'
'rid_'
'}_'
'whose_'
'lâ_'
'Sếp_'
'East_'
'losing_'
'dreams_'
'promised_'
'ngầm_'
'families_'
'earlier_'
'greatest_'
'double_'
'Fire_'
'jump_'
'Kill_'
'hồng_'
'ying_'
'Trừ_'
'Sư_'
'Love_'
'raise_'
'extra_'
'chìm_'
'sợi_'
'quê_'
'hiê_'
'danger_'
'Thuyền_'
'brothers_'
'Kinh_'
'weight_'
'locked_'
'nhu_'
'hải_'
'general_'
'NG_'
'recognize_'
'among_'
'picked_'
'recently_'
'khoảnh_'
'blind_'
' -- (_'
'pieces_'
'flight_'
'court_'
'ladies_'
'Nh'
'Gã_'
'rule_'
'nút_'
'source_'
'hỏa_'
'ngọt_'
'Vương_'
'island_'
'cỏ_'
'Hàng_'
'sake_'
'lùng_'
'consider_'
'Uncle_'
'đc_'
'tiềm_'
'Đánh_'
'ping_'
'jail_'
'file_'
'Nữ_'
'Quan_'
'Find_'
'phấn_'
'flying_'
'walked_'
'hundreds_'
'tàng_'
'Baby_'
'Đêm_'
'Vui_'
'Sinh_'
'tuyết_'
'bông_'
'Thêm_'
'joke_'
'dress_'
'understanding_'
'thoảng_'
'liked_'
'Vua_'
'rẻ_'
'clock_'
'hương_'
'bối_'
'steal_'
'ding_'
'khán_'
'hiếm_'
'đệ_'
'hỗn_'
'Doctor_'
'grew_'
'Tiểu_'
'Pete_'
'22_'
'xóa_'
'thao_'
'Turn_'
'Mã_'
'leo_'
'cash_'
'shoes_'
'I'
'solve_'
'lock_'
'bẫy_'
'dạo_'
'thô_'
'officer_'
'term_'
'bringing_'
'Chi_'
'issues_'
'hà_'
'marriage_'
'nghiện_'
'heads_'
'freedom_'
'Texas_'
'written_'
'Son_'
'Lạy_'
'feed_'
'faith_'
'Dude_'
'hiding_'
'dare_'
'bảy_'
'Roger_'
'Walter_'
'lovely_'
'gián_'
'summer_'
'sight_'
'chuỗi_'
'lunch_'
'agent_'
'main_'
'Ted_'
'Toàn_'
'Thông_'
'đu_'
'matters_'
'hiến_'
'fat_'
'Kate_'
'7845_'
'ments_'
'jobs_'
'gotten_'
'trồng_'
'guard_'
'trượt_'
'lord_'
'Thả_'
'Alright_'
'strength_'
'ging_'
'bám_'
'trữ_'
'complex_'
'mì_'
'trạm_'
'result_'
'stars_'
'chở_'
'wine_'
'literally_'
'closed_'
'trúng_'
'tiêm_'
'sy_'
'student_'
'35_'
'lights_'
'exist_'
'ad_'
'nho_'
'sắt_'
'khiêu_'
'tủ_'
'famous_'
'tea_'
'kiên_'
'ON_'
'..."_'
'suddenly_'
'voi_'
'Đấy_'
'copy_'
'Amy_'
'sữa_'
'bă_'
'Bobby_'
'older_'
'Nathan_'
'afternoon_'
'Street_'
'ended_'
'Khoảng_'
'mập_'
'ghép_'
'Hạ_'
'corner_'
'Francis_'
'aware_'
'ex_'
'CIA_'
'Báo_'
'reasons_'
'hạng_'
'surprised_'
'cases_'
'Tay_'
'̀, _'
'scientists_'
'higher_'
'Th'
'Stark_'
'gói_'
'cởi_'
'wondering_'
'becomes_'
'Guys_'
'Chiếc_'
'complicated_'
' -_'
'san_'
'available_'
'seriously_'
'necessary_'
'gấu_'
'match_'
'trưng_'
'blame_'
'mượn_'
'Yep_'
'sánh_'
'Ready_'
'Los_'
'points_'
'medicine_'
'practice_'
'knowing_'
'hiển_'
'empty_'
'Mi_'
'nỗ_'
'lt_'
'Chicago_'
'đĩa_'
'tụ_'
'Sáng_'
'Bệnh_'
'điếm_'
'phe_'
'designed_'
'Ngoài_'
'email_'
'tràn_'
'boyfriend_'
' ]_'
'treatment_'
'ôm_'
'loves_'
'Morgan_'
'movement_'
'chớ_'
'sleeping_'
'meaning_'
'deserve_'
'serve_'
'ay_'
'roll_'
'cute_'
'Tr'
'Doug_'
'der_'
'Europe_'
'hét_'
'arrest_'
'violence_'
'mỏi_'
'lawyer_'
'solution_'
'economic_'
'cột_'
'trees_'
'site_'
'lược_'
'Happy_'
'hadn_'
'Lan_'
'Hoàn_'
'shape_'
'bậc_'
'Rick_'
'plans_'
'ff_'
'excited_'
'7843_'
'hearing_'
'béo_'
'̀?_'
'responsible_'
'nearly_'
'chép_'
'average_'
'ừ_'
'dò_'
'Their_'
'vườn_'
'signal_'
'nhịp_'
'forgive_'
'Detective_'
'rắn_'
'hòn_'
'Wilson_'
'thác_'
'bô_'
'Khốn_'
'vờ_'
'excuse_'
'vision_'
'bắc_'
'Tư_'
'shooting_'
'gỗ_'
'ends_'
'Mang_'
'Mama_'
'Hang_'
'miền_'
'Afghanistan_'
'stole_'
'tia_'
'đẳng_'
'truyện_'
'tight_'
'spread_'
'moon_'
'failed_'
'mộng_'
'Eric_'
' ♪ ♪ _'
'khôn_'
'Andy_'
'lui_'
'Simon_'
'network_'
'Colonel_'
'climate_'
'Alice_'
'career_'
'St_'
'staying_'
'due_'
'club_'
'account_'
'ngoái_'
'Ảnh_'
'ned_'
'base_'
'thiệp_'
'park_'
'chă_'
'Jones_'
'soldiers_'
'draw_'
'device_'
'keeps_'
'ghé_'
'toà_'
'feelings_'
'effect_'
'showing_'
'potential_'
'plant_'
'developed_'
'HIV_'
'Facebook_'
'mãn_'
'ler_'
'dày_'
'clearly_'
'walls_'
'images_'
'neck_'
'mồi_'
'innocent_'
'including_'
'played_'
'Mục_'
'mỏ_'
'somehow_'
'nation_'
'23_'
'quit_'
'breath_'
'beauty_'
'north_'
'kick_'
'material_'
'leaves_'
'easier_'
'bả_'
'uses_'
'ster_'
'nướng_'
'justice_'
'cry_'
'Ms_'
'tools_'
'location_'
'hoping_'
'rights_'
'ot_'
'grab_'
'possibly_'
'tật_'
'tươi_'
'xóm_'
'hip_'
'add_'
'Nằm_'
'results_'
'gods_'
'success_'
'mũ_'
'indeed_'
'Grace_'
'ngưỡng_'
'mental_'
'thước_'
'asshole_'
'võ_'
'mạn_'
'familiar_'
'None_'
'pulled_'
'tâ_'
'Roy_'
'saving_'
'Gi'
'female_'
'chăng_'
'biện_'
'đéo_'
'spoke_'
'believed_'
'Better_'
'7853_'
'cát_'
'Tim_'
'fucked_'
'taste_'
'streets_'
'nãy_'
'dẹp_'
'national_'
'birth_'
'arrived_'
'manh_'
'dáng_'
'heo_'
'nose_'
'đuôi_'
'seemed_'
'kiệm_'
'ur_'
'sold_'
'gs_'
'226_'
'individual_'
'hoà_'
'darling_'
'Kh'
'Canada_'
'Bruce_'
'ner_'
'lùi_'
'cắn_'
'trươ_'
'advice_'
'II_'
'pregnant_'
'Hank_'
'.... _'
'damage_'
'wood_'
'fan_'
'approach_'
'awesome_'
'Da_'
'planning_'
'Khỉ_'
'Forget_'
'tu'
'healthy_'
'warm_'
'remain_'
'nervous_'
'lặn_'
'ary_'
'Dạ_'
'Doesn_'
'đắn_'
'War_'
'trick_'
'ân_'
'page_'
'connected_'
'hận_'
'gãy_'
'trade_'
'râ_'
'bụi_'
'herself_'
'trầm_'
'crew_'
'ngũ_'
'Ho_'
'phổi_'
'growth_'
'dogs_'
'dirty_'
'turning_'
'sụp_'
'gate_'
'Uống_'
'positive_'
'lied_'
'condition_'
'babies_'
'Hell_'
'Lão_'
'Gordon_'
'audience_'
' ♪ _'
'Up_'
'Lady_'
'knife_'
'south_'
'answers_'
'Want_'
'Kiểm_'
'nhiê_'
'noticed_'
'safety_'
'mồ_'
'Biến_'
'Exactly_'
'Easy_'
'heavy_'
'fired_'
'Edward_'
'spirit_'
'Rằng_'
'IN_'
'ưa_'
'vong_'
'structure_'
'loss_'
'Whoo_'
'Lẽ_'
'ốm_'
'similar_'
'mại_'
'doctors_'
'Americans_'
'admit_'
'victim_'
'leader_'
'Qu'
'Á_'
'super_'
'skills_'
'hat_'
'́?_'
'mention_'
'ancient_'
'Ryan_'
'drinking_'
'church_'
'captain_'
'Cộng_'
'roof_'
'proof_'
'cỗ_'
'Probably_'
'bổ_'
'rũ_'
'Leo_'
'*_'
''?_'
'modern_'
'Professor_'
'monster_'
'chốt_'
'rain_'
'nd_'
'headed_'
'rise_'
'lò_'
'ations_'
'tám_'
'intelligence_'
'impact_'
'ties_'
'shop_'
'heat_'
'camp_'
'areas_'
'smoke_'
'Tập_'
'Maria_'
'eventually_'
'product_'
'mến_'
'chấn_'
'Marty_'
'phái_'
'Victor_'
'gỡ_'
'Sherlock_'
'Lincoln_'
'ow_'
'lọc_'
'Ng'
'brings_'
'tò_'
'folks_'
'Thư_'
'Talk_'
'Finch_'
'é_'
'chê_'
'connection_'
'surgery_'
'lu_'
'dì_'
'trá_'
'block_'
'lower_'
'keys_'
'exciting_'
'ure_'
'Ngủ_'
'dã_'
'ruột_'
'ist_'
'vội_'
'lưỡi_'
'stress_'
'k'
'hôi_'
'ngắm_'
'đấm_'
'ph_'
'ial_'
'balls_'
'mười_'
'followed_'
'Has_'
'Brother_'
'vây_'
'threat_'
'dở_'
'Song_'
'Luôn_'
'zero_'
'xứ_'
'150_'
'victims_'
'fresh_'
'Phụ_'
'nhục_'
'teeth_'
'tape_'
'Emma_'
'Boy_'
'responsibility_'
'event_'
'economy_'
'Na_'
'Unless_'
'Trust_'
'bullshit_'
'resources_'
'Absolutely_'
'99_'
'forest_'
'credit_'
'nguyền_'
'bone_'
'Quý_'
'note_'
'grown_'
'afford_'
'Giải_'
'mâ_'
'emergency_'
'uncle_'
'subject_'
'khảo_'
'generation_'
'US_'
'driver_'
'Until_'
'Stand_'
'experiment_'
'upset_'
'đồi_'
'Jesse_'
'Đẹp_'
'crap_'
'command_'
'male_'
'creating_'
'duty_'
'brains_'
'%._'
'Aye_'
'Hannah_'
'wild_'
'beer_'
'đền_'
'vote_'
'kẹo_'
'Nghĩ_'
'Congratulations_'
'release_'
'neither_'
'trích_'
'ngẫu_'
'Lùi_'
'Doc_'
'destroyed_'
'đuối_'
'tháp_'
'mực_'
'comfortable_'
'trừng_'
'chicken_'
'Wall_'
'bloody_'
'ờ_'
'cương_'
'awful_'
'Quên_'
'response_'
'kem_'
'Ả_'
'role_'
'Six_'
'Rose_'
'27_'
' --_'
'paying_'
'khấu_'
'Lũ_'
'vu_'
'thạch_'
'range_'
'laugh_'
'provide_'
'nuclear_'
'chọc_'
'acting_'
'Katie_'
'progress_'
'khùng_'
'hello_'
'Đô_'
'breathe_'
'birds_'
'While_'
'TO_'
'Enough_'
'Aw_'
'specific_'
'ms_'
'mail_'
'Yêu_'
'Ed_'
'đẻ_'
'tê_'
'tro_'
'Prince_'
'Boston_'
'giảng_'
'dry_'
'industry_'
'bullet_'
'So'
'Giáng_'
'ard_'
'groups_'
'Bài_'
'shame_'
'chair_'
'Qua_'
'breaking_'
'Jason_'
'weak_'
'dollar_'
'cuô_'
'ni_'
'bother_'
'rào_'
'bốc_'
'However_'
'smile_'
'gọn_'
'Israel_'
'post_'
'Were_'
'Kế_'
'- ..._'
'speech_'
'ier_'
'extremely_'
'Goodbye_'
'ốc_'
'suggest_'
'incredibly_'
'bỏng_'
'01_'
'mark_'
'faces_'
'concerned_'
'Walt_'
'suspect_'
'harder_'
'U'
'Thiếu_'
'Many_'
'bathroom_'
'Hỏa_'
'trial_'
'ron_'
'basic_'
'quality_'
'mountain_'
'lỏng_'
'bền_'
'Park_'
'prepared_'
'period_'
'fill_'
'Annie_'
'easily_'
'Cực_'
'screen_'
'nowhere_'
'murdered_'
'Hẹn_'
'Chief_'
' [_'
'trục_'
'obvious_'
'mass_'
'Chơi_'
' % _'
'tiệm_'
'produce_'
'Russian_'
'lắp_'
'grand_'
'belong_'
'đắt_'
'directly_'
'zed_'
'toa_'
'Carter_'
'mây_'
'crying_'
'pack_'
'ger_'
'Harold_'
'raised_'
'caused_'
'capable_'
'ri_'
'photo_'
'nhạy_'
'happiness_'
'dropped_'
'Điện_'
'quét_'
'khớp_'
'development_'
'Y'
'trơ_'
'lly_'
'Angeles_'
'protein_'
'pants_'
'alright_'
'xích_'
'Sĩ_'
'Louis_'
'Amanda_'
'relax_'
'expensive_'
'decisions_'
'cuồng_'
'current_'
'IT_'
'goal_'
'đảng_'
'tor_'
'machines_'
'legal_'
'kitchen_'
'direction_'
'nhấn_'
'Hiệp_'
'understood_'
'tị_'
'giant_'
'Fucking_'
'Always_'
'ance_'
'total_'
'object_'
'criminal_'
'Lời_'
'perfectly_'
'sending_'
'qu'
'lin_'
'Aren_'
'côn_'
'Pull_'
'7889_'
'rủi_'
'bottle_'
'Ten_'
'Loại_'
'Hải_'
'ridiculous_'
'Sounds_'
'Again_'
'judge_'
'soldier_'
'sees_'
'.'_'
'cược_'
'cards_'
'7879_'
'hê_'
'Smith_'
'tháo_'
'tang_'
'forced_'
'Nàng_'
'taxi_'
'meat_'
'below_'
'assume_'
'Seriously_'
'Miller_'
'Jackson_'
'ver_'
'tuyển_'
'thuế_'
'Without_'
'W'
')._'
'received_'
'ours_'
'fellow_'
'covered_'
'Ward_'
'Chả_'
'letting_'
'thuần_'
'cal_'
'Mommy_'
'Đứa_'
'ôi_'
'band_'
'watched_'
'apologize_'
'giật_'
'upstairs_'
'hiếp_'
'Except_'
'unit_'
'nhằm_'
'fake_'
'asleep_'
'German_'
'thắc_'
'forces_'
'ans_'
'Cầm_'
'nhuận_'
'invited_'
'thoughts_'
'hidden_'
'activity_'
'Santa_'
'tie_'
'queen_'
'fought_'
'cậy_'
'chín_'
'J'
'plenty_'
'cớm_'
'cup_'
'Tomorrow_'
'Luật_'
'Tổ_'
'staff_'
'shown_'
'pháo_'
'Tyler_'
'u'
'plants_'
'heading_'
'bồi_'
'Old_'
'Amen_'
'Trở_'
'. '
'tịch_'
'Di_'
'sói_'
'operation_'
'guilty_'
'desk_'
'ning_'
'Kéo_'
'heaven_'
'26_'
'- - _'
'greater_'
'Chuck_'
'witness_'
'Câm_'
'cường_'
'7841_'
'75_'
'hèn_'
'highly_'
'dọc_'
'developing_'
'becoming_'
'Marcus_'
'members_'
'Einstein_'
'actual_'
'Quả_'
'Jerry_'
'600_'
'gối_'
'expected_'
'Papa_'
'England_'
'Down_'
'tân_'
'deliver_'
'chose_'
'Học_'
'Dương_'
'British_'
'tuân_'
'thiểu_'
'lê_'
'Pretty_'
'quyến_'
'nhát_'
'mờ_'
'Imagine_'
'Brazil_'
'ray_'
'opened_'
'discuss_'
'brave_'
'tởm_'
'Đa_'
'mụ_'
'hân_'
'bớt_'
'Dùng_'
'weather_'
'hanging_'
'Ethan_'
'grade_'
'Kong_'
'Cầu_'
'sơn_'
'successful_'
'Mất_'
'particularly_'
'p'
'leaders_'
'Lisa_'
'computers_'
'O'
'Jordan_'
'đần_'
'records_'
'ny_'
'nhốt_'
'doors_'
'bó_'
'Yi_'
'Luke_'
'crisis_'
'correct_'
'đam_'
'hă_'
'filled_'
'distance_'
'ses_'
'lợn_'
'460_'
'prefer_'
'breakfast_'
'Day_'
'́, _'
'Vincent_'
'cake_'
'whom_'
'powers_'
'measure_'
'hước_'
'chief_'
'barely_'
'El_'
'vứt_'
'ră_'
'horses_'
'gánh_'
'extraordinary_'
'conditions_'
'$_'
'vĩnh_'
'cụt_'
'ue_'
'noise_'
'moves_'
'khoá_'
'hoạ_'
'ang_'
'Vũ_'
'minds_'
'fate_'
'sat_'
'nụ_'
'digital_'
'cure_'
'Wayne_'
'painting_'
'̉._'
'ái_'
'Life_'
'storm_'
'square_'
'Trường_'
'pho_'
'lesson_'
'Music_'
'Lối_'
'vú_'
'solar_'
'pounds_'
'Thea_'
'schools_'
'State_'
'7901_'
'largest_'
'phones_'
'humanity_'
'vầy_'
'identity_'
'harm_'
'Things_'
'bóp_'
'Thủ_'
'Fiona_'
'xăng_'
'trained_'
'tes_'
'Japanese_'
'Gary_'
'sexual_'
'daddy_'
'useful_'
'Walker_'
'pizza_'
'avoid_'
'Young_'
'Laurel_'
'Âm_'
'suicide_'
'rưỡi_'
'Yet_'
'original_'
'lâm_'
'khung_'
'dies_'
'? -_'
'ngẩn_'
'era_'
'buýt_'
'African_'
'huỷ_'
'bọc_'
'Iraq_'
'Christian_'
'28_'
'2000_'
'scientific_'
'ght_'
'Ladies_'
'Bang_'
'papers_'
'Ugh_'
'policy_'
'ngập_'
'lẻ_'
'cs_'
'choices_'
'Molly_'
'Lily_'
'Besides_'
'đư_'
'y'
'wise_'
'trú_'
'nắng_'
'đáo_'
'task_'
'sốc_'
'nts_'
'Elizabeth_'
'thấu_'
'letters_'
'hoài_'
'Police_'
'shirt_'
'nhựa_'
'failure_'
'Both_'
'ships_'
'nạ_'
'insane_'
'Sean_'
'Guess_'
'32_'
'trộn_'
'kiê_'
'details_'
'cook_'
'bực_'
'Francisco_'
'Drop_'
'đít_'
'Ian_'
'wide_'
'fail_'
'exact_'
'edge_'
'đáy_'
'dick_'
'Shall_'
'Đặt_'
'cấy_'
'chuông_'
'ated_'
'Địa_'
'enemies_'
'character_'
'Phil_'
'forgotten_'
'dãy_'
'cắm_'
'Underwood_'
'west_'
'hằng_'
'Hong_'
'den_'
'Khá_'
'trào_'
'Chase_'
'website_'
'stronger_'
'nor_'
'hệt_'
'ee_'
'Sắp_'
'Cá_'
'Anyone_'
'hy'
'Brown_'
'Morning_'
'Lieutenant_'
'forth_'
'Ni'
'series_'
'ely_'
'gh'
'Hành_'
'mă_'
'bạch_'
' — _'
'suffering_'
'dàn_'
'artist_'
'opinion_'
'Howard_'
'pop_'
'degrees_'
'ces_'
'Tiên_'
'ghost_'
'fantastic_'
'Phương_'
'row_'
'restaurant_'
'strike_'
'property_'
'ngớ_'
'ought_'
'kênh_'
'cai_'
'Cao_'
'Andrew_'
'split_'
'develop_'
'Mac'
'weekend_'
'protection_'
'pray_'
'Sha'
'Sergeant_'
'vở_'
'piano_'
'dressed_'
'agreed_'
'organization_'
'Central_'
'memories_'
'ker_'
'hurts_'
'khói_'
'communities_'
'buried_'
'Vừa_'
'Green_'
'nhàng_'
'dược_'
'Marie_'
'Kiểu_'
' ,_'
'dâu_'
'kệ_'
'checked_'
'Bức_'
' ] _'
'toilet_'
'Ask_'
'emotional_'
'secure_'
'Must_'
'Instead_'
'neighborhood_'
'bút_'
'National_'
'huyền_'
'ery_'
'bắp_'
'Majesty_'
'* _'
'forms_'
'Clear_'
'Tử_'
'Chân_'
'Cameron_'
'Blue_'
'wo'
'pool_'
'politics_'
'fingers_'
'Second_'
'váy_'
'tri'
'paint_'
'negative_'
'leading_'
'khoác_'
'introduce_'
'beg_'
'10'
'rat_'
'pocket_'
'laws_'
'chẩn_'
'Jean_'
'nuts_'
'Carrie_'
'visual_'
'selling_'
'gởi_'
'falling_'
'Ragnar_'
'Iran_'
'text_'
'professional_'
'entirely_'
'eh_'
'48_'
'"..._'
'secrets_'
'Seven_'
'Đơn_'
'Castle_'
'ủi_'
'ys_'
'yard_'
'Holmes_'
'devil_'
'đàm_'
'unique_'
'math_'
'GPS_'
'mọc_'
'lây_'
'leads_'
'flowers_'
'Tướng_'
'teachers_'
'mostly_'
'Un'
'Maggie_'
'Cut_'
'un_'
'style_'
'pal_'
'dealing_'
'cốt_'
'chợ_'
'bright_'
'Linda_'
'za'
'remind_'
'cưỡng_'
'Tu'
'Each_'
'thối_'
'sons_'
'shift_'
'ears_'
'Nhất_'
'AIDS_'
'naked_'
'Hệ_'
'Đo_'
'yo_'
'enter_'
'ugly_'
'slide_'
'Van_'
'Indian_'
'thiêu_'
'nê_'
'Relax_'
'Ngoại_'
'Lucy_'
'Cool_'
'stood_'
'kiệt_'
'attacked_'
'Lucas_'
'returned_'
'nốt_'
'manage_'
'lầu_'
'Shoot_'
'tuệ_'
'suýt_'
'motherfucker_'
'levels_'
'horrible_'
'beach_'
'advantage_'
'Nope_'
'Khu_'
'Câ_'
'winter_'
'milk_'
'gene_'
'Gar'
'outta_'
'pretend_'
'cứt_'
'considered_'
'Same_'
'?" _'
'cuộn_'
'buildings_'
';._'
'km_'
'citizens_'
'beings_'
'Florida_'
'Dân_'
'rung_'
'dạ_'
'Charlotte_'
'plastic_'
'increase_'
'breathing_'
'Mô_'
'smaller_'
'objects_'
'net_'
'meters_'
'cạn_'
'chip_'
'Xuống_'
'France_'
'technologies_'
'dumb_'
'brilliant_'
'traffic_'
'lăn_'
'ish_'
'aid_'
'Men_'
'shared_'
'hưu_'
'bucks_'
'Nguyên_'
'rẽ_'
'guards_'
'Le'
'vo_'
'vang_'
'stayed_'
'dắt_'
'? ._'
'woods_'
'opening_'
'hunt_'
'Victoria_'
'bite_'
'bill_'
'Thiết_'
'Đư_'
'trói_'
'software_'
'pattern_'
'finger_'
'Caesar_'
'sung_'
'med_'
'... .._'
'vãi_'
'robots_'
'mentioned_'
'core_'
'Giả_'
'Dễ_'
'si_'
'pot_'
'gh_'
'bồ_'
'recent_'
'loud_'
'department_'
'bọ_'
'Jay_'
'đàng_'
'threw_'
'services_'
'chi'
'Snow_'
'bơ_'
'Vegas_'
'effective_'
'bột_'
'bread_'
'tend_'
'ghen_'
'Ko'
'Heh_'
'Follow_'
'z'
'tool_'
'thỉnh_'
'desire_'
'client_'
'sweetheart_'
'cousin_'
'concern_'
'CO2_'
'Boss_'
'events_'
'lung_'
'gõ_'
'chest_'
'ak_'
'Sơ_'
'throughout_'
'loose_'
'ism_'
'helps_'
'performance_'
'nộp_'
'burning_'
'Major_'
'De'
'Bay_'
'silly_'
'Video_'
'Ja'
'Chồng_'
'đạc_'
'mổ_'
'claim_'
'Evan_'
'8'
'é'
'runs_'
'hardly_'
'dancing_'
'appear_'
'international_'
'khuyến_'
'guest_'
'f'
'critical_'
'Hồng_'
'`_'
'thói_'
'fuel_'
'east_'
'Calm_'
'Ước_'
'zing_'
'version_'
'gục_'
'Star_'
'Garcia_'
'sen_'
'materials_'
'hunting_'
'High_'
'tùng_'
'ngửi_'
'larger_'
'do'
'ni'
'i'
'chain_'
'cameras_'
'Matthew_'
'swim_'
'sugar_'
'massive_'
'ear_'
'Chàng_'
'Air_'
'7873_'
'lă_'
'genetic_'
'Buổi_'
'remains_'
'nọ_'
'Vi_'
'pair_'
'moments_'
'interview_'
'han_'
'eggs_'
'related_'
'Japan_'
'Hóa_'
'reached_'
'mươi_'
'Linh_'
'Harvey_'
'steps_'
'hired_'
'Hẳn_'
'ped_'
'lle_'
'amp_'
'Harvard_'
'ga'
'active_'
'nấm_'
'expecting_'
'ants_'
'Bad_'
'♫ _'
'revolution_'
'Tưởng_'
'oo'
'gạt_'
'genius_'
'curious_'
'Thuốc_'
'TH'
'Carol_'
'proper_'
'Larry_'
'tongue_'
'mistakes_'
'crash_'
'oxygen_'
'kin_'
'j_'
'Raymond_'
'Lâu_'
'sand_'
'regret_'
'giáp_'
'Tàu_'
'Đằng_'
'sts_'
'slowly_'
'rare_'
'knock_'
'giỡn_'
'farm_'
'costs_'
'Flash_'
'Bond_'
'flow_'
'Grant_'
'Giá_'
'een_'
'Hàn_'
'95_'
'member_'
'cares_'
'Karen_'
'Alan_'
'. " _'
'stolen_'
'Cửa_'
'227_'
'hít_'
'Angela_'
'234_'
'popular_'
'lót_'
'wire_'
'ranh_'
'individuals_'
'ào_'
'yellow_'
'opposite_'
'mon_'
'managed_'
'khía_'
'hall_'
'bs_'
'Twitter_'
'. [_'
'direct_'
'ded_'
'teaching_'
'ged_'
'Ho'
'laughing_'
'lack_'
'Commander_'
'Aaron_'
'sweetie_'
'goodbye_'
'border_'
'Allen_'
'Đươ_'
'za_'
'otherwise_'
'exchange_'
'Robin_'
'Đàn_'
'regular_'
'creative_'
'Roman_'
'Patrick_'
'En'
'wash_'
'usual_'
'ied_'
'Gentlemen_'
'1000_'
'tông_'
'ries_'
'rescue_'
'nhảm_'
'studies_'
'khúc_'
'campaign_'
'Mai_'
'đai_'
'ticket_'
'switch_'
'sudden_'
'du'
'Wells_'
'LO'
'tr_'
'mile_'
'36_'
'movies_'
'mm_'
'ium_'
'Phong_'
'Army_'
'7875_'
'trùm_'
'throat_'
'financial_'
'arrested_'
'Teddy_'
'ồ_'
'trap_'
'hố_'
'desert_'
'carefully_'
'Lạp_'
'ướt_'
'Q_'
'đòn_'
'Đương_'
'xé_'
'supply_'
'effort_'
'carrying_'
'moral_'
'innovation_'
'Thu'
'tail_'
'effects_'
'chiê_'
'boring_'
'Parker_'
'signed_'
'7897_'
'suffer_'
'perspective_'
'grandfather_'
'Wake_'
'Tệ_'
'connect_'
'types_'
'decades_'
'University_'
'Giơ_'
'sướng_'
'ordered_'
'chăn_'
'disappear_'
'democracy_'
'defense_'
'balance_'
'Mới_'
'engine_'
'seek_'
'ins_'
'talks_'
'investigation_'
'ill_'
'ating_'
'Malcolm_'
'Joseph_'
'Gideon_'
'Bước_'
'Đóng_'
'ván_'
'vehicle_'
'scientist_'
'Hỏi_'
'soft_'
'bùng_'
'bones_'
'Je'
'Also_'
'sacrifice_'
'personally_'
'ol_'
'cống_'
'Manhattan_'
'Close_'
'poverty_'
'offered_'
'len_'
'ja_'
'conference_'
'Sheriff_'
'xíu_'
'triết_'
'circle_'
'bự_'
'Ngon_'
'Greg_'
'tests_'
'Felicity_'
'Almost_'
'internet_'
'income_'
'hàm_'
'cừu_'
'begins_'
'Mc'
'separate_'
'inch_'
'capital_'
'signs_'
'ized_'
'báu_'
'allows_'
'Alpha_'
'11'
'trinh_'
'nhặt_'
'mu_'
'lật_'
'dán_'
'dis'
'region_'
'il_'
'hm_'
'airport_'
'Send_'
'Buddy_'
'thổ_'
'rooms_'
'móng_'
'má_'
'crowd_'
'causes_'
'scary_'
'Times_'
'Susan_'
'Guy_'
'! '
'thắt_'
'spending_'
'mer_'
'loa_'
'bể_'
'armed_'
'Sáu_'
'phô_'
'ens_'
'dinh_'
'Spartacus_'
'yourselves_'
'detail_'
'Save_'
'Derek_'
',"_'
'warning_'
'quãng_'
'appears_'
'0'
'châm_'
'buying_'
'Thâ_'
'Pablo_'
'workers_'
'làn_'
'burned_'
'bike_'
'Reid_'
'electricity_'
'Step_'
'Reese_'
'Mars_'
'tỏa_'
'sub'
'Mu'
'shots_'
'sandwich_'
'ordinary_'
'khoái_'
'disappeared_'
'Tra'
'Shaw_'
'Hà_'
'Di'
'Dead_'
'kèm_'
'giặt_'
'degree_'
'bro_'
'Chó_'
'Berlin_'
'sorts_'
'hood_'
'Kelly_'
'tươ_'
'tions_'
'ngưng_'
'load_'
'hâm_'
'Although_'
'television_'
'rỗng_'
'800_'
'độn_'
'rộn_'
'lạy_'
'conflict_'
'Cút_'
'photos_'
'finds_'
'Li'
'creatures_'
'cream_'
'released_'
'products_'
'models_'
'bacteria_'
'Trắng_'
'RO'
'Cập_'
'Anybody_'
'7899_'
'ngư_'
'khao_'
'Officer_'
'Jessica_'
'Ken_'
'ền_'
'glasses_'
'fixed_'
'chemical_'
'Vị_'
'Pre'
'treated_'
'temperature_'
'studying_'
'joy_'
'Potter_'
'Nhờ_'
'whoever_'
'wave_'
'states_'
'bồn_'
'grandmother_'
'darkness_'
'stomach_'
'ical_'
'examples_'
'ages_'
'thỏ_'
'sm_'
'physics_'
'cong_'
'Cooper_'
'5'
'xí_'
'shed_'
'mobile_'
'focused_'
'Tuần_'
'Chi'
'factory_'
'dùm_'
'Night_'
'NASA_'
'Ever_'
'suck_'
'sexy_'
'option_'
'invented_'
'insurance_'
'Clay_'
'Catherine_'
'911_'
'shake_'
'equipment_'
'Lo'
'ID_'
'3D_'
'29_'
'bleeding_'
'râu_'
'Ã_'
'wound_'
'thâm_'
'tech_'
'standard_'
'player_'
'lén_'
'Start_'
'Nê_'
'Mười_'
'Bốn_'
'traditional_'
'foreign_'
'content_'
'statement_'
'rt_'
'permission_'
'lồng_'
'coat_'
'bá_'
'trigger_'
'plus_'
'kingdom_'
'evolution_'
'Bánh_'
'clever_'
'patterns_'
'nét_'
'manager_'
'dle_'
'competition_'
'bow_'
'ney_'
'hill_'
'differently_'
'Văn_'
'Phát_'
'‎._'
'vay_'
'so'
'ming_'
'dig_'
'blog_'
'Johnson_'
'Finally_'
'.'
'phú_'
'nở_'
'dozen_'
'des_'
'Julie_'
'khoang_'
'collect_'
'Tương_'
'Thống_'
'ters_'
'sed_'
'projects_'
'pig_'
'mỹ_'
'ess_'
'Trò_'
'ti'
'metal_'
'grave_'
'brand_'
'Stone_'
'Ron_'
'Latin_'
'Debbie_'
' / _'
'ngô_'
'laid_'
'dại_'
'Han_'
'Clark_'
'nhí_'
'ut_'
'planned_'
'ngào_'
'convince_'
'angel_'
'Ki'
'Jacob_'
'Giỏi_'
'7913_'
'"'
'nhở_'
'gậy_'
'dỗ_'
'castle_'
'Coulson_'
'ôn_'
'zone_'
'nghịch_'
'concept_'
'Mĩ_'
'Lewis_'
'tráng_'
'silver_'
'official_'
'cH'
'Ro'
'Moses_'
'Dưới_'
'xế_'
'sưu_'
'launch_'
'function_'
'blocks_'
'', _'
'thiếp_'
'res_'
'houses_'
'trật_'
'ize_'
'instance_'
'gang_'
'Dì_'
'route_'
'puts_'
'mớ_'
'khơi_'
'cheap_'
'Tonight_'
'ừm_'
'wet_'
'shower_'
'nôn_'
'lift_'
'ked_'
'hoãn_'
'cự_'
'chóc_'
'7907_'
'vắng_'
'Căn_'
'singing_'
'presence_'
'aside_'
'Western_'
'units_'
'tip_'
'gă_'
'ward_'
'plate_'
'destiny_'
'Thường_'
'E'
'Alexander_'
'awake_'
'Sister_'
'younger_'
'miracle_'
'bến_'
'belongs_'
'Kid_'
'F'
'repeat_'
'pulling_'
'possibility_'
'nhơ_'
'Minister_'
'... '
'sooner_'
'rent_'
'illegal_'
'handsome_'
'Quick_'
'Julia_'
'Jeff_'
'Hợp_'
'Death_'
'courage_'
'colleagues_'
'Vâ_'
'Từng_'
'Foreman_'
'̣._'
'w'
'ov_'
'cơm_'
'chosen_'
'spell_'
'als_'
'Terry_'
'Khán_'
'served_'
'meal_'
'dê_'
'agents_'
'Gotham_'
'Cuddy_'
'cài_'
'Hand_'
'Beth_'
'tall_'
'engineering_'
'button_'
'Khó_'
'Helen_'
'12'
'revenge_'
'nhét_'
'mẻ_'
'motion_'
'miêu_'
'lands_'
'depends_'
'AN'
'7911_'
'quí_'
'celebrate_'
'ải_'
'thầm_'
'protecting_'
'ford_'
'convinced_'
'Nhảy_'
'Hơi_'
'Either_'
'ầm_'
'tuy_'
'describe_'
'strategy_'
'former_'
'Tha_'
'Saul_'
'272_'
'đoạt_'
'the'
'sentence_'
'lau_'
'Ahh_'
' .._'
'slept_'
'shock_'
'chui_'
'whore_'
'whenever_'
'vải_'
'tracking_'
'monkey_'
'ka'
'freak_'
'facts_'
'downstairs_'
'Women_'
'Hit_'
'valuable_'
'toward_'
'sharing_'
'lu'
'invite_'
'Z'
'Lance_'
'A'
'đố_'
'âu_'
'xà_'
'ur'
'o'
'ju'
'fortune_'
'Watson_'
'Chu'
'poison_'
'Quỷ_'
'Manny_'
'rough_'
'professor_'
'mirror_'
'consequences_'
'thỉu_'
'nơ_'
'mo'
'homes_'
'hearts_'
'flat_'
'detective_'
'Believe_'
'ory_'
'Ku'
'Davis_'
'đinh_'
'pre'
'authority_'
'deeply_'
'Twenty_'
'3cHFF1000_'
'đoan_'
'thoả_'
'khen_'
'garden_'
'Mắt_'
'Friday_'
'Cole_'
'sion_'
'attempt_'
'Unfortunately_'
'Benjamin_'
'– _'
'đỗ_'
'Mia_'
'ria_'
'reaction_'
'picking_'
'múa_'
'grateful_'
'cựu_'
'crack_'
'chiêu_'
'Nu'
'Nhiệm_'
'thuỷ_'
'spring_'
'setting_'
'production_'
'mercy_'
'demand_'
'communication_'
'bly_'
'bags_'
'atmosphere_'
'Dậy_'
'Brody_'
'wa_'
'vả_'
'tạ_'
'tru'
'quấy_'
'phun_'
'khẳng_'
'files_'
'confused_'
'compassion_'
'Wyatt_'
'đứt_'
'tour_'
'respond_'
'genes_'
'ets_'
'Cheers_'
'passion_'
'lấp_'
'Rebecca_'
'Jo'
'Đau_'
'wing_'
'relationships_'
'hu'
'highest_'
'gentleman_'
'bra'
'Thú_'
'Sun_'
'survived_'
'mystery_'
'lonely_'
'li'
'dịp_'
'bâ_'
'bath_'
'ADN_'
'kills_'
'cheese_'
'Number_'
'ER_'
'Anderson_'
'Ain_'
', - _'
'Đem_'
'xi_'
'ft_'
'according_'
'Tội_'
'Moon_'
'Giám_'
'benefit_'
'Kenya_'
'Jin_'
'Grayson_'
'7891_'
'reports_'
'pen_'
'ending_'
'bio'
'Sống_'
'P'
'Nina_'
'ết_'
'ngắt_'
'liver_'
'laptop_'
'holes_'
'context_'
'Hollywood_'
'Forgive_'
'đãi_'
'nights_'
'logic_'
'hon_'
'CH'
'BA'
'snow_'
'screwed_'
'remove_'
'lệch_'
'Lawrence_'
'... ♪_'
'odd_'
'lăng_'
'actions_'
'Ngân_'
'spoken_'
'reward_'
'mountains_'
'communicate_'
'] [_'
'Such_'
'Hu'
'ắn_'
'đơ_'
'ving_'
'sides_'
'princess_'
'prepare_'
'lately_'
'however_'
'cảng_'
'creature_'
'Thị_'
'Bravo_'
'. ♪_'
'scare_'
'lờ_'
'hoo_'
'cutting_'
'ớt_'
'ville_'
'pe_'
'fore'
'equal_'
'bệ_'
'although_'
'Yên_'
'Súng_'
'Sta'
'Middle_'
'Jenny_'
'Hitler_'
' . _'
'witch_'
'mask_'
'improve_'
'essentially_'
'committed_'
'bury_'
'42_'
'remarkable_'
'nương_'
'despite_'
'cast_'
'He'
'Half_'
'DO'
'sis_'
'nurse_'
'lifetime_'
'imagination_'
'fourth_'
'doin_'
'contract_'
'Tô_'
'Security_'
'tied_'
'màng_'
'hẹp_'
'hits_'
'banh_'
'apply_'
'ana_'
'THAT_'
'Lester_'
'Amazon_'
'terrorist_'
'mi'
'chằm_'
'Soon_'
'therefore_'
'engage_'
'Sunday_'
'nảy_'
'Seth_'
'195'
'joined_'
'debt_'
'argue_'
'Josh_'
'Island_'
'194'
'đà_'
'violent_'
'troops_'
'gain_'
'engaged_'
'ber_'
'Cưng_'
'xuân_'
'tiễn_'
'season_'
'receive_'
'lõi_'
'Apparently_'
'— _'
'prisoner_'
'ood_'
'lều_'
'random_'
'bound_'
'Jon_'
'Đám_'
'Điểm_'
'tower_'
'thép_'
'invisible_'
'hack_'
'Moscow_'
'đực_'
'precious_'
'fishing_'
'câm_'
'Viện_'
'Noah_'
'Miami_'
'Coming_'
'AND_'
'ện_'
'survival_'
'goin_'
'Lydia_'
'Ư'
'wheel_'
'trapped_'
'settle_'
'false_'
'touched_'
'pound_'
'lo'
'Thổ_'
'Per'
'surveillance_'
'lướt_'
'liar_'
'ite_'
'childhood_'
'OF_'
'MAN_'
'- [_'
'wow_'
'pure_'
'inter'
'civil_'
'bẻ_'
'Palmer_'
'tăm_'
'stands_'
'license_'
'khôi_'
'Phu_'
'Mo'
'Cây_'
'Copy_'
'ủy_'
'vặt_'
'challenges_'
'Jill_'
'...!_'
'thịnh_'
'spare_'
'mood_'
'messages_'
'hoạn_'
'bu'
'Bi'
'rỉ_'
'nhe_'
'dust_'
'Ơ_'
'ye_'
'symptoms_'
'rủa_'
'hi'
'deeper_'
'Taylor_'
'Scotland_'
'xi'
'stealing_'
'slightly_'
'dating_'
'Know_'
'xăm_'
'súc_'
'Fu'
'Động_'
'therapy_'
'stock_'
'request_'
'hãng_'
'Bel'
'Albert_'
'woke_'
'rush_'
'discover_'
'Su'
'winning_'
'tẩy_'
'tissue_'
'Za'
'Tắt_'
'xộn_'
'tra'
'chô_'
'alarm_'
'Won_'
'Hồ_'
'Dear_'
'romantic_'
'circumstances_'
'arts_'
'argument_'
'xài_'
'emotions_'
'bầy_'
'ì_'
'xì_'
'Jersey_'
'waited_'
'pilot_'
'knees_'
'guide_'
'experiences_'
'bơm_'
'Use_'
'êm_'
'solutions_'
'nuốt_'
'abandoned_'
'Minh_'
'Felix_'
'Bóng_'
'bedroom_'
'Sở_'
'Best_'
'Arrow_'
'slave_'
'hor'
'gar'
'fundamental_'
'Iris_'
'Hiro_'
'Alô_'
') "_'
'ẩm_'
'scan_'
'diseases_'
'capacity_'
'bù_'
'Rock_'
'La'
'Black'
'Bank_'
'vạch_'
'chances_'
'Wa'
'Siêu_'
'Rập_'
'Princess_'
'Phía_'
'Germany_'
'Careful_'
'ó'
'xưởng_'
'ul_'
'religion_'
'expert_'
'cu'
'Z_'
'Bảy_'
'31_'
'under'
'triều_'
'thà_'
'hire_'
'el'
'chục_'
'anger_'
'Mi'
'struggle_'
'remote_'
'lắc_'
'ering_'
'Ti'
'- (_'
'waves_'
'defend_'
'confidence_'
'Norman_'
'Dự_'
' ? _'
'vẹn_'
'searching_'
'requires_'
'Ohh_'
'Fox_'
'writer_'
'viêm_'
'tần_'
'ski_'
'riding_'
'identify_'
'facing_'
'decade_'
'Spock_'
'quarter_'
'central_'
'Water_'
'9'
'ếch_'
'tz_'
'satellite_'
'fashion_'
'cạo_'
'Ze'
'Way_'
'Kiếm_'
'Khách_'
'Har'
'3'
'studied_'
'prevent_'
'passing_'
'parking_'
'owner_'
'options_'
'extreme_'
'Nah_'
'Kirk_'
'MIT_'
'tly_'
'ruồi_'
'nd'
'Hm_'
'muối_'
'com_'
'voices_'
'uni'
'throwing_'
'photograph_'
'giê_'
'exists_'
'Brooklyn_'
'38_'
'values_'
'trusted_'
'silence_'
'leadership_'
'chua_'
'capture_'
'biology_'
'Thích_'
'? '
'officers_'
'jealous_'
'Thought_'
'Riley_'
'Joshua_'
'Go'
'stranger_'
'sin_'
'shadow_'
'fed_'
'Pick_'
'Đê_'
'wealth_'
'hed_'
'chocolate_'
'Kyle_'
'unusual_'
'sọ_'
'iron_'
'achieve_'
'She'
'tone_'
'screw_'
'mẩu_'
'Nghiêm_'
'Iron_'
'Had_'
'thiêng_'
'status_'
'schedule_'
'lets_'
'escaped_'
'drove_'
'charges_'
'beating_'
'apparently_'
'Mac_'
'Going_'
'Connor_'
'1'
'punch_'
'influence_'
'fo'
'Hope_'
'ED_'
'$ _'
'ồng_'
'victory_'
'significant_'
'mouse_'
'lạm_'
'garage_'
'falls_'
'enc'
'đă_'
'represent_'
'lường_'
'library_'
'flesh_'
'River_'
'Fred_'
'Fitz_'
'mòn_'
'muscle_'
'friendly_'
'election_'
'55_'
'shoulder_'
'shi'
'sensitive_'
'placed_'
'dội_'
'Logan_'
'Department_'
'lư_'
'funeral_'
'Mari'
'Jamie_'
'Eve_'
'According_'
'sét_'
'rocks_'
'mat'
'Hill_'
'CEO_'
'mỏng_'
'multiple_'
'khoai_'
'ise_'
'ingly_'
'importantly_'
'ible_'
'Wouldn_'
'School_'
'Hunter_'
'BE'
'stopping_'
'Ye'
'Tài_'
'Especially_'
'65_'
'rau_'
'pills_'
'ki'
'flower_'
'dịu_'
'vast_'
'tons_'
'Senator_'
'Ne'
'Bữa_'
'vuông_'
'soup_'
'partners_'
'mis'
'lận_'
'ji_'
'fy_'
'chà_'
'background_'
'Ngôi_'
'Dịch_'
'Cor'
'trân_'
'neurons_'
'họng_'
'Special_'
'33_'
'xá_'
'kicked_'
'demon_'
'cave_'
'Pri'
'Na'
'Do'
'Cu'
'thă_'
'rope_'
'Dragon_'
'testing_'
'planets_'
'micro'
'currently_'
'chày_'
'RE'
'Laura_'
'tầu_'
'nón_'
'drawing_'
'ba'
'Cục_'
'7869_'
'inspired_'
'ically_'
'defeat_'
'curse_'
'checking_'
'alien_'
'Zi'
'TR'
'No'
'profile_'
'firm_'
'fancy_'
'en'
'bong_'
'ati'
'Bu'
'ALL_'
'ời_'
'solid_'
'sha'
'op_'
'lũng_'
'Savage_'
'trash_'
'surrounded_'
'nes_'
'lon_'
'enormous_'
'cy'
'architecture_'
'đợt_'
'carried_'
'struck_'
'blew_'
'anti_'
'Tòa_'
'Seems_'
'Pha_'
'Grab_'
'91_'
'wisdom_'
'university_'
'thin_'
'thief_'
'rảnh_'
'ad'
'Otherwise_'
'June_'
'37_'
'steel_'
'nàn_'
'experiments_'
'Tinh_'
'Ta'
'Sức_'
'Goddamn_'
'Girl_'
'Eat_'
'Being_'
'Ali_'
'sôi_'
'jo_'
'colors_'
'Russia_'
'Man'
'Ben'
'smoking_'
'published_'
'link_'
'daily_'
'Might_'
'Dennis_'
'Cat_'
' "._'
'panic_'
'butt_'
'biological_'
'affect_'
'Rio_'
'Neither_'
'MA'
'à'
'score_'
'hand'
'consciousness_'
'climb_'
'bon'
'article_'
'ST_'
'ME_'
'Bo_'
'2008_'
'py_'
'hãm_'
'giọt_'
'cafe_'
'Nicholas_'
'Mum_'
'FA'
'Cho'
'protected_'
'nhá_'
'molecules_'
'lột_'
'jacket_'
'everyday_'
'cloud_'
'Càng_'
'2'
'tear_'
'non'
'explore_'
'excellent_'
'ered_'
'bell_'
'Ste'
'Scofield_'
'Khan_'
'Justin_'
'Den'
'wherever_'
'vất_'
'mayor_'
'facility_'
'RI'
'Ned_'
'Mong_'
'Abraham_'
'various_'
'nhã_'
'le'
'ir_'
'Scarlett_'
'Sand'
'Ke'
'Judy_'
'Avatar_'
'useless_'
'teams_'
'notes_'
'ngoa_'
'lãm_'
'existence_'
'Li_'
'Jackie_'
'Ed'
'á'
'vịt_'
'uy_'
'to'
'ter'
'print_'
'nhãn_'
'governments_'
'ell_'
'dâ_'
'badly_'
'Lucky_'
'Cisco_'
'warn_'
'vacation_'
'unknown_'
'trắc_'
'treasure_'
'traveling_'
'ski'
'religious_'
'frame_'
'Poor_'
'Daisy_'
'ệ_'
'sisters_'
'rãi_'
'basis_'
'plays_'
'investment_'
'infection_'
'hook_'
'drinks_'
'closing_'
'SI'
'Excellent_'
'Donald_'
'Á'
'talent_'
'prisoners_'
'normally_'
'Virginia_'
'Stephen_'
'Perfect_'
'Dan'
'Betty_'
'Barney_'
', ... _'
'tunnel_'
'thọ_'
'ks'
'holds_'
'exercise_'
'cooking_'
'Quyền_'
'Jo_'
'Haven_'
'par'
'fields_'
'collection_'
'on'
'odds_'
'mar'
'egg_'
'anti'
'Woman_'
'GDP_'
'Cánh_'
'Con'
', '
'phiêu_'
'package_'
'nhạt_'
'giu_'
'cultural_'
'che'
'TI'
'Kar'
'GI'
'Ellen_'
'Ashley_'
'xông_'
'tank_'
'ruin_'
'ra'
'nạp_'
'lưỡng_'
'fe'
'doạ_'
'Shi'
'ối_'
'sharp_'
'lar'
'ao_'
'elements_'
'beneath_'
'attacks_'
'Val'
'Nhạc_'
'NG'
'Home_'
'pushing_'
'pissed_'
'Sar'
'va'
'immune_'
'experienced_'
'cò_'
'chuộc_'
'car'
'wings_'
'silent_'
'ruined_'
'infected_'
'guests_'
'for'
'Việt_'
'Quiet_'
'Bro'
'Alfred_'
'Áo_'
'zo_'
'super'
'replace_'
'ku'
'ists_'
'Tóm_'
'Tính_'
'Thủy_'
'Chuyến_'
'fu_'
'dragon_'
'cally_'
'buồng_'
'ban'
'bal'
'ably_'
'Tokyo_'
'Sweet_'
'Light_'
'ằng_'
'unfortunately_'
'thuẫn_'
'sắm_'
'remembered_'
'reduce_'
'quyê_'
'ore_'
'ngọc_'
'muội_'
'handed_'
'boxes_'
'Món_'
'theater_'
'lánh_'
'Ya'
'Starling_'
'Spanish_'
'Red'
'Pakistan_'
'Oz_'
'Looking_'
'ES_'
'♪ ♪_'
'ấu_'
'urban_'
'environmental_'
'counting_'
'arrive_'
'Nigeria_'
'Ivan_'
'Chừng_'
'Bonnie_'
'Định_'
'disaster_'
'cent_'
'buông_'
'al'
'Grand_'
'Chứ_'
'7885_'
'transfer_'
'hiền_'
'eaten_'
'bấm_'
'backup_'
'Xác_'
'Rach_'
'Michelle_'
'Lu'
'windows_'
'evolved_'
'dập_'
'basement_'
'a'
'Pro'
'Hands_'
'Dick_'
'Clarke_'
'47_'
'walks_'
'staring_'
'radiation_'
'pie_'
'ngo'
'museum_'
'lam_'
'golf_'
'chiên_'
'bility_'
'Other_'
'Mừng_'
'Ð'
'underneath_'
'pages_'
'magazine_'
'labor_'
'fallen_'
'ben'
'battery_'
'Thụy_'
'Tan'
'Diego_'
'Anne_'
'trace_'
'swimming_'
'ious_'
'ignore_'
'13'
'té_'
'over'
'ics_'
'devices_'
'cks_'
'Stan_'
'Mil'
'Beautiful_'
'700_'
'require_'
'federal_'
'eli'
'compared_'
'My'
'Lou_'
'30'
'offering_'
'chước_'
'417_'
'"!_'
'í_'
'studio_'
'spy_'
'pride_'
'lla_'
'ina_'
'cycle_'
'creates_'
'benefits_'
'Stra'
'Ford_'
'Chương_'
'mix_'
'limited_'
'deck_'
'de'
'coast_'
'borrow_'
'Fort_'
'properly_'
'laser_'
'clients_'
'blah_'
'Pop_'
'PH'
'Máu_'
', ..._'
'warrior_'
'tt_'
'screaming_'
'War'
'Tai_'
'ăng_'
'lion_'
'honestly_'
'ges_'
'delivered_'
'Zoe_'
'Megan_'
'ốt_'
'pan'
'lake_'
'football_'
'chasing_'
'Che'
'Art_'
'ig'
'director_'
'Màu_'
'Mus'
'Left_'
'Indeed_'
'". _'
'necessarily_'
'la'
'causing_'
'beast_'
'adult_'
'Steven_'
'engineer_'
'differences_'
'Sammy_'
'Nhận_'
'Hôn_'
'Cathy_'
'su'
'rates_'
'piss_'
'ously_'
'institutions_'
'go'
'dawn_'
'Or'
'Arm'
'96_'
've'
'tím_'
'murderer_'
'hated_'
'captured_'
'Ka'
'Her'
'CHUCKLES_'
'Bur'
'reported_'
'quote_'
'jumped_'
'giùm_'
'comfort_'
'ce'
'ber'
'Thỉnh_'
'Sam'
'Khả_'
'Ci'
'2010_'
'ĩ_'
'Đu_'
'painful_'
'organizations_'
'bã_'
'Inter'
'Far'
'Caroline_'
'... "_'
'vạn_'
'ji'
'guarantee_'
'grid_'
'crimes_'
'Nancy_'
'MO'
'wanting_'
'tears_'
'rớt_'
'ou_'
'goodness_'
'cow_'
'chuyền_'
'bar'
'Viên_'
'7855_'
'wan'
'prince_'
'kinda_'
'gy_'
'giang_'
'centuries_'
'assistant_'
'Vật_'
'Hotch_'
'đậy_'
'tricks_'
'title_'
'smells_'
'oxy_'
'nhường_'
'khuyết_'
'hitting_'
'gũi_'
'cưỡi_'
'agreement_'
'Mùa_'
'Đỏ_'
'ì'
'chén_'
'RA'
'Ju'
')'
'perform_'
'om_'
'nut_'
'lọ_'
'ette_'
'driven_'
'belt_'
'believes_'
'Marshall_'
'Giao_'
'Cởi_'
'Brad_'
'Barbara_'
'nar'
'home'
'IS_'
'672_'
'ề_'
'gạch_'
'fer'
'dump_'
'desperate_'
'Ru'
'thơm_'
'sucks_'
'ly'
'water'
'ta'
'he'
'dâng_'
'ar'
'advance_'
'Lãnh_'
'Buông_'
'tracks_'
'nie_'
'nerve_'
'khéo_'
'earn_'
'( _'
'đẽ_'
'soil_'
'shh_'
'pushed_'
'programs_'
'll'
'heroes_'
'explosion_'
'elevator_'
'delivery_'
'cock_'
'Yu_'
'VE_'
'SA'
'Florence_'
'Điên_'
'ngột_'
'ngh'
'majority_'
'da'
'chu'
'assure_'
'Khỏe_'
'Drink_'
'Ba'
'điếu_'
'section_'
'muôn_'
'depression_'
'Lính_'
'Gửi_'
'Cast'
'Aang_'
'15'
'tát_'
'sườn_'
'reputation_'
'opportunities_'
'mama_'
'adults_'
'Kara_'
'Hood_'
'pleased_'
'connections_'
'betrayed_'
'as'
'Bennet_'
'yards_'
'toast_'
'ir'
'construction_'
'analysis_'
'VI'
'Saturday_'
'Previously_'
'Plus_'
'Pi'
'Giọng_'
'European_'
'An'
'AR'
'AI_'
'Đảng_'
'up'
'thính_'
'required_'
'out'
'hoan_'
'frozen_'
'explanation_'
'chat_'
'Mel'
'Is'
'Head_'
'Ge'
'Elena_'
'Casey_'
'ập_'
'sale_'
'refuse_'
'parent_'
'nhện_'
'interests_'
'cab_'
'ambulance_'
'Gates_'
'Force_'
'Chuyển_'
'Asia_'
'AL'
'zo'
'tickets_'
'surprising_'
'sto'
'rèn_'
'neighbors_'
'fa'
'Super_'
'Obviously_'
'Hứa_'
': '
'yn_'
'surely_'
'port_'
'logy_'
'ita'
'generations_'
'cru'
'Italian_'
'Holly_'
'? (_'
'incident_'
'har'
'grass_'
'fascinating_'
'dirt_'
'destruction_'
'described_'
'crossed_'
'tumor_'
'sam'
'gather_'
'34_'
'đè_'
'í'
'trèo_'
'rice_'
'quặc_'
'prize_'
'operating_'
'nâu_'
'nhũng_'
'Whoever_'
'ura_'
'shopping_'
'removed_'
'bees_'
'alert_'
'Tor'
'zi'
'toy_'
'si'
'lungs_'
'geo'
'clue_'
'Though_'
'SO'
'Percy_'
'NE'
'Margaret_'
'Division_'
'vely_'
'vaccine_'
'tax_'
'soạn_'
'golden_'
'artists_'
'acts_'
'San'
'Cro'
'nghiệt_'
'deserves_'
'constantly_'
'cher_'
'bee_'
'Mind_'
'Hall_'
'Barnes_'
'đính_'
'vòi_'
'sáo_'
'pi'
'judgment_'
'exposed_'
'YouTube_'
'Os'
'In'
'Eight_'
'tens_'
'sho'
'quỳ_'
'boom_'
'Jennifer_'
'Emperor_'
'stops_'
'kiêu_'
'electrical_'
'Trận_'
'Sandy_'
'Ngừng_'
'xách_'
'dốc_'
'aging_'
'Oscar_'
'HO'
'Center_'
'someday_'
'se'
'rưởi_'
'nan_'
'latest_'
'kẹp_'
'intelligent_'
'bullets_'
'Enjoy_'
'14'
'vulnerable_'
'signals_'
'roads_'
'loving_'
'lover_'
'lips_'
'impressive_'
'ho'
'ều_'
'trương_'
'newspaper_'
'io_'
'chớp_'
'Sợ_'
'Philadelphia_'
'Obama_'
'MRI_'
'stairs_'
'heal_'
'decent_'
'Tâm_'
'Samuel_'
'Blood_'
'ắc_'
'ận_'
'ual_'
'ngs_'
'fellas_'
'dly_'
'definition_'
'WE_'
'43_'
'Úc_'
'suffered_'
'sets_'
'khinh_'
'Italy_'
'120_'
'lt'
'cul'
'Huynh_'
'BO'
'thrown_'
'quận_'
'juice_'
'dri'
'delicious_'
'bịch_'
'advanced_'
'Sal'
'Monday_'
'Maya_'
'Haiti_'
'For'
'Bả_'
'sin'
'We'
'Korea_'
'Đế_'
'trail_'
'host_'
'farmers_'
'asks_'
'accounts_'
'Saint_'
'Dar'
'April_'
'ể_'
'xám_'
'tradition_'
'stable_'
'sector_'
'produced_'
'heh_'
'creativity_'
'blo'
'Oxford_'
'Ly'
'Land'
'rạp_'
'kg_'
'jerk_'
'holy_'
'ei'
'cụm_'
'Trưởng_'
'Sea'
'Ronnie_'
'Nhóm_'
'Merlyn_'
'Khoa_'
'Congress_'
'Been_'
'52_'
'yt'
'societies_'
'rude_'
'drill_'
'ars_'
'Slow_'
'Gotta_'
'Cắt_'
' $ _'
'ến_'
'đếch_'
'worthy_'
'organized_'
'discovery_'
'customers_'
'billions_'
'Lannister_'
'Doo'
'Car'
'Băng_'
'Bra'
'16'
' ! _'
'mos'
'chém_'
'cha'
'angle_'
'Miễn_'
'Kính_'
'GE'
'Ai'
'Abby_'
'88_'
'worlds_'
'wi'
'threatened_'
'specifically_'
'speaks_'
'kes_'
'ians_'
'gender_'
'Off_'
'Nar'
'Mer'
'Lim'
'Er'
'Answer_'
'Đoán_'
'xo'
'stic_'
'spa'
'rốt_'
'of'
'je'
'ja'
'flag_'
'af'
'Ten'
'Promise_'
'Hướng_'
'Apple_'
'uniform_'
'oa'
'ma'
'feeding_'
'faced_'
'ck'
'cell'
'bastards_'
'Union_'
'Cà_'
'ầy_'
'wasting_'
'tể_'
'thôn_'
'ht'
'ez_'
'appointment_'
'Qua'
'Point_'
'Dường_'
'Dana_'
'7903_'
'... (_'
'val'
'sờ_'
'skill_'
'sheriff_'
'lessons_'
'ence_'
'ci'
'bla'
'bat_'
'Dor'
'Ann_'
'typical_'
'tan'
'slip_'
'ser_'
'sa'
'ry'
'ne'
'fever_'
'Du'
'Bal'
'85_'
'2009_'
'rea'
'exit_'
'chuồn_'
'Rượu_'
'Orleans_'
'LA_'
'KE'
'Danh_'
'Atlanta_'
'Alvin_'
'temple_'
'ngộ_'
'ero'
'ct_'
'commit_'
'combat_'
'ched_'
'cats_'
'belief_'
'Re'
'Chứng_'
'Ch_'
'underground_'
'sẹo_'
'skull_'
'she'
'sample_'
'cing_'
'cage_'
'Tháng_'
'Gus_'
'Duke_'
'Becca_'
'tte_'
'sacred_'
'languages_'
'kèn_'
'giáng_'
'footage_'
'cleaning_'
'chuồng_'
'chinh_'
'cabin_'
'breast_'
'Through_'
'Te'
'Nhóc_'
'NSA_'
'LI'
'Hi'
'Ga'
'92_'
'stays_'
'ngây_'
'hs_'
'bli'
'Speak_'
'Min'
'Del'
'Aunt_'
'7915_'
'72_'
'thoa_'
'dơ_'
'duyệt_'
'Sonny_'
'Port'
'Pierre_'
'Kennedy_'
'Enterprise_'
'Carlos_'
'war'
'risks_'
'mothers_'
'fund_'
'Trẻ_'
'Mas'
'Lei'
'Georgia_'
'winner_'
'thoái_'
'să_'
'suits_'
'rét_'
'nasty_'
'multi'
'ide'
'bits_'
'Thiệt_'
'EA'
'method_'
'lề_'
'fruit_'
'Third_'
'xả_'
'tested_'
'players_'
'lố_'
'banks_'
'added_'
'HE_'
'Eh_'
'pee_'
'particles_'
'nal_'
'ino'
'flash_'
'Star'
'Set_'
'Mid'
'Hoan_'
'Fish_'
'Bệ_'
'tre_'
'sources_'
'phẳng_'
'ide_'
'gravity_'
'gear_'
'garbage_'
'creation_'
'Vo'
'Valley_'
'Tùy_'
'Real_'
'Nobel_'
'Kin'
' ?_'
'mu'
'man'
'Skye_'
'Pu'
'Phật_'
'Miles_'
'Kind_'
'), _'
'ê'
'sum_'
'quát_'
'past'
'networks_'
'jo'
'fairly_'
'brown_'
'Neil_'
'Finn_'
'Count_'
'Chloe_'
'Bon'
'ẹo_'
'ys'
'march_'
'lùn_'
'hers_'
'controlled_'
'Sub'
'Monsieur_'
'Kệ_'
'Australia_'
'Alzheimer_'
'thy_'
'stream_'
'pussy_'
'privacy_'
'mâu_'
'imagined_'
'emotion_'
'Sus'
'Skyler_'
'Martha_'
'Company_'
'.?_'
'ờng_'
'ới_'
'rỗi_'
'quyên_'
'predict_'
'me'
'divorce_'
'aw'
'attorney_'
'Russians_'
'tit'
'soi_'
'que'
'nhánh_'
'gates_'
'ffe'
'efficient_'
'căm_'
'clip_'
'cents_'
'babe_'
'Win'
'Sy'
'Rob_'
'Fa'
'Dia'
'Cung_'
'̉?_'
'điền_'
'ó_'
'vụn_'
'prop'
'muỗi_'
'marks_'
'intend_'
'ie'
'ed'
'Sylar_'
'Sherman_'
'Nội_'
'Joy_'
'Bible_'
'"... _'
' – _'
'ya'
'por'
'flies_'
'commercial_'
'accepted_'
'Si'
'Sa_'
'Mason_'
'Lo_'
'Hoo'
'Earl_'
'44_'
'. ..._'
'trán_'
'thro'
'sla'
'poly'
'khiếu_'
'gài_'
'dải_'
'deny_'
'aged_'
'Rút_'
'Nine_'
'Hắc_'
'ts'
'top'
'neighbor_'
'hụt_'
'hở_'
'flew_'
'drag_'
'chase_'
'bóc_'
'Mal'
'Good'
'Fre'
'tag_'
'cớ_'
'Under_'
'Chọn_'
'root_'
'injured_'
'disappointed_'
'agency_'
'Nghỉ_'
'Isaac_'
'Chun_'
'197'
'Đọc_'
'songs_'
'quầy_'
'phâ_'
'mil'
'loyal_'
'ing'
'hop_'
'disgusting_'
'Bí_'
'191'
'Ư_'
'ây_'
'ultimately_'
'trêu_'
'parties_'
'organs_'
'gớm_'
'graph_'
'fella_'
'epi'
'clinic_'
'bars_'
'aunt_'
'Turner_'
'ă_'
'wins_'
'van'
'us'
'sor'
'snake_'
'shelter_'
'landscape_'
'eu'
'blown_'
'Hy'
'xôi_'
'vol'
'strangers_'
'if'
'coin_'
'bu_'
'ashamed_'
'Boris_'
'ẻ_'
'wounded_'
'structures_'
'nếm_'
'khử_'
'employees_'
'earned_'
'dil'
'chaos_'
'Quite_'
'DEA_'
'DE'
'Couldn_'
'Đài_'
'warned_'
'sustainable_'
'primary_'
'nations_'
'glory_'
'ge'
'cúi_'
'WHAT_'
'Sally_'
'Mitch_'
'Kai_'
'Darwin_'
'Cra'
'shy_'
'sch'
'midnight_'
'civilization_'
'bombs_'
'Vinci_'
'Marcel_'
'&_'
'ups_'
'torture_'
'rr'
'ric'
'recall_'
'pit_'
'mixed_'
'ku_'
'inde'
'gut_'
'guessing_'
'flu_'
'combination_'
'baseball_'
'Madam_'
'Lui_'
'IE'
'priest_'
'mãnh_'
'lượn_'
'j'
'expression_'
'deaths_'
'củ_'
'criminals_'
'cay_'
'Yu'
'Rat'
'NA'
'Drive_'
'Bàn_'
'17'
'ù_'
'ub'
'thi'
'sports_'
'ko'
'custody_'
'cra'
'Ánh_'
'thươ_'
'throne_'
'succeed_'
'stem_'
'san'
'quest_'
'pre_'
'monsters_'
'gu'
'arm'
'actor_'
'Under'
'SS_'
'IC'
'Delta_'
'Bá_'
'tremendous_'
'pla'
'ou'
'ona'
'miserable_'
'kỵ_'
'ea'
'Da'
'46_'
'39_'
'2007_'
'thắn_'
'sometime_'
'pin'
'es'
'ches_'
'breaks_'
'Thám_'
'Hat'
'Frankie_'
'Dale_'
'Cap'
'ên_'
'wondered_'
'ul'
'territory_'
'pa_'
'maker_'
'knocked_'
'hurting_'
'hu_'
'gai_'
'Sea_'
'Sai_'
'Leonard_'
'Hans_'
'Becky_'
' *_'
'warming_'
'thu'
'ooh_'
'két_'
'champagne_'
'bab'
'Whose_'
'Wanna_'
'Highness_'
'Bor'
'Đùa_'
'procedure_'
'nản_'
'khỏa_'
'include_'
'gươm_'
'firing_'
'coincidence_'
'behave_'
'alternative_'
'alcohol_'
'ace_'
'Vết_'
'Suốt_'
'Pin'
'Mickey_'
'Cla'
'6'
'versus_'
'un'
'túng_'
'hacker_'
'chì_'
'champion_'
'ball'
'Tru'
'Pheebs_'
'Lar'
'Hercules_'
'Break_'
'ợt_'
'wasted_'
'vắc_'
'vư_'
'sta'
'ken_'
'dồn_'
'dramatic_'
'Vệ_'
'Sim'
'Ros'
'Pope_'
'Lễ_'
'Giới_'
'Bell_'
'Ay'
'tries_'
'surrender_'
'mit'
'mid'
'goods_'
'explained_'
'debate_'
'confirm_'
'candy_'
'Tóc_'
'Prime_'
'HA'
'Gu'
'Fight_'
'Blake_'
'. ♫ ♫ _'
'trọn_'
'instructions_'
'inner_'
'besides_'
'Sớm_'
'Pan'
'Kra'
'Cas'
'Au'
'Arab_'
'193'
'pity_'
'entered_'
'Thirty_'
'Team_'
'Swa'
'Need_'
'ð'
'uncomfortable_'
'stroke_'
'seats_'
'rễ_'
'nightmare_'
'legend_'
'landed_'
'hông_'
'búp_'
'assault_'
'Ram'
'Ana'
'7847_'
'tive_'
'solved_'
'pul'
'nồng_'
'joking_'
'ine'
'cối_'
'búa_'
'út_'
'whiskey_'
'sảnh_'
'spaces_'
'per'
'nén_'
'di'
'bốt_'
'ane'
'Wu'
'Wolf_'
'Ollie_'
'LY_'
'Juan_'
'Gonna_'
'Church_'
'Bám_'
'tH'
'shell_'
'plain_'
'nhấc_'
'management_'
'au'
'affair_'
'Vas'
'Ts'
'ze'
'sequence_'
'researchers_'
'red'
'platform_'
'ngất_'
'knee_'
'infrastructure_'
'illness_'
'ds'
'drives_'
'bills_'
'ancestors_'
'Suy_'
'Q'
'Dấu_'
'Colombia_'
'At'
'vần_'
'or'
'ngừa_'
'khoe_'
'importance_'
'côi_'
'compare_'
'chốn_'
'characters_'
'40'
'sse'
'hes_'
'gan'
'fra'
'essential_'
'confident_'
'attitude_'
'associated_'
'appropriate_'
'Tạ_'
'Ton'
'Phản_'
'Pe'
'Co'
'warrant_'
'transport_'
'shine_'
'magical_'
'hãnh_'
'gìn_'
'charity_'
'Tỉnh_'
'Thở_'
'Son'
'Honor_'
'Franklin_'
'Đệ_'
'Đạo_'
'ô'
'xô_'
'thick_'
'ip'
'coward_'
'court'
'ances_'
'Speaking_'
'Money_'
'Lorenzo_'
'Kan'
'God'
'AT'
'wishes_'
'stones_'
'reverse_'
'radar_'
'pet_'
'offense_'
'obsessed_'
'mysterious_'
'khuất_'
'ility_'
'iPhone_'
'flu'
'Wi'
'To'
'Sat'
'Ricky_'
'Mine_'
'County_'
'wn_'
'una'
'tản_'
'rn_'
'rising_'
'nu'
'nonsense_'
'loaded_'
'electric_'
'Ir'
'Diana_'
'trunk_'
'sil'
'pardon_'
'ls'
'listened_'
'impressed_'
'Kia_'
'tre'
'mấu_'
'express_'
'begun_'
'abuse_'
'Year_'
'Thi_'
'Mạnh_'
'Darcy_'
'Bồ_'
'ri'
'profit_'
'naturally_'
'meter_'
'blade_'
'artificial_'
'Vol'
'Marco_'
'Loài_'
'Kansas_'
'Freeze_'
'Dun'
'Binh_'
'senior_'
'po'
'ock_'
'khiêm_'
'helicopter_'
'cleared_'
'channel_'
'bored_'
'Robbie_'
'Hunt_'
'Heather_'
'Dog_'
'Ash'
'supplies_'
'ple'
'pipe_'
'diet_'
'clouds_'
'back'
'Mar'
'Cuốn_'
'ạ'
'thung_'
'sub_'
'slaves_'
'nhiễu_'
'mes_'
'liquid_'
'jungle_'
'ile_'
'dời_'
'cruel_'
'click_'
'bri'
'Nhắc_'
'touching_'
'ss'
'pink_'
'figures_'
'constant_'
'Syria_'
'Nicky_'
'Its_'
'Egypt_'
'ỏ_'
'¡_'
'unc'
'previous_'
'hates_'
'giư_'
'explains_'
'estate_'
'cúp_'
'confirmed_'
'On'
'IN'
'Cal'
'98_'
'ấp_'
'invest_'
'internal_'
'her'
'generous_'
'embarrassing_'
'coal_'
'bát_'
'TO'
'Keith_'
'Cindy_'
'CO'
'Attention_'
'đới_'
'¶ _'
'weakness_'
'nn'
'gorgeous_'
'fold_'
'fence_'
'bur'
'behalf_'
'Shakespeare_'
'Said_'
'Greek_'
'êu_'
'vươn_'
'nề_'
'maintain_'
'hoped_'
'diê_'
'bull_'
'ade_'
'absolute_'
'Triều_'
'Sai'
'Pet'
'Penny_'
'New'
'Kit_'
'Gabriel_'
'Dal'
'Be'
';?_'
'...'
'wolf_'
'sheep_'
'phơi_'
'loan_'
'duck_'
'chĩa_'
'alo'
'Sophie_'
'Shin'
'Nghệ_'
'Mùi_'
'Inc'
'Getting_'
'Fi'
'Clo'
'BI'
'ợc_'
'terrorists_'
'sec_'
'rực_'
'recorded_'
'phàn_'
'occurred_'
'novel_'
'experts_'
'dẻo_'
'addition_'
'Walk_'
'Royal_'
'Lip_'
'Lake_'
'Hậu_'
'Hòa_'
'Cơn_'
'Code_'
'Boys_'
'Bla'
'tle_'
'rip_'
'lea'
'humor_'
'gray_'
'Meet_'
'May'
'Dom_'
'Dam'
'Bé_'
'7919_'
'20th_'
' : _'
'đắm_'
'reveal_'
'loser_'
'hoo'
'cap'
'Kee'
'Chìa_'
'CHA'
'Điển_'
'yb'
'ro'
'rit'
'poem_'
'hổng_'
'hàn_'
'diversity_'
'continues_'
'choàng_'
'bấy_'
'bướm_'
'Tức_'
'Mol'
'Houston_'
'04_'
'ất_'
'tôm_'
'steady_'
'principle_'
'mp_'
'formed_'
'chợt_'
'cer'
'Thức_'
'RE_'
'Feel_'
'ắt_'
'whi'
'seal_'
'opens_'
'noble_'
'ities_'
'industrial_'
'gli'
'dro'
'cẩu_'
'Vàng_'
'Strange_'
'ON'
'Karl_'
'Goe'
'Evil_'
'Conrad_'
'84_'
'var'
'smarter_'
'selfish_'
'reasonable_'
'oo_'
'ease_'
'classroom_'
'classes_'
'Zoom_'
'Up'
'tar'
'rể_'
'lậu_'
'daughters_'
'collective_'
'ching_'
'bỗng_'
'businesses_'
'affected_'
'Sol'
'Para'
'Lea'
'Ken'
'Fri'
'Dra'
'De_'
'Chen_'
'unexpected_'
'treating_'
'safer_'
'rib'
'messed_'
'limit_'
'blowing_'
'answered_'
'Ser'
'Omar_'
'Marshal_'
'Flint_'
'Don'
'Baker_'
',... _'
'symbol_'
'spin_'
'oy_'
'onal_'
'immediate_'
'gap_'
'closely_'
'ble'
'PO'
'Mississippi_'
'Len'
'LA'
'EN'
'Cat'
'ser'
'photographs_'
'mono'
'kilometers_'
'apple_'
'activities_'
'Wade_'
'Uhm_'
'Shu'
'Lan'
'Donnie_'
'ệt_'
'stations_'
'side'
'scratch_'
'rose_'
'phenomenon_'
'gram_'
'gosh_'
'còng_'
'bi'
'Web_'
'Phe'
'PM_'
'Nghiên_'
'Lực_'
'souls_'
'sites_'
'sail_'
'nghiền_'
'introduced_'
'hei'
'heart'
'flip_'
'entrance_'
'discussion_'
'couch_'
'bless_'
'aboard_'
'Va'
'Uni'
'Quentin_'
'Him_'
'87_'
'... ... _'
'upper_'
'transform_'
'sport_'
'ret'
'puzzle_'
'pathetic_'
'opera_'
'markets_'
'gra'
'gol'
'cal'
'belly_'
'Vanessa_'
'Sur'
'Sasha_'
'Nan'
'Harris_'
'Du_'
'worker_'
'trans'
'physically_'
'nứt_'
'io'
'hái_'
'guts_'
'fre'
'dreaming_'
'cúm_'
'cáp_'
'bùn_'
'by'
'adventure_'
'Ur'
'Troy_'
'Tri'
'Trans'
'Throw_'
'Tar'
'Hard_'
'Frank'
'Children_'
'Ban'
'" (_'
'ym'
'wipe_'
'ular_'
'tựa_'
'targets_'
'tap_'
'post'
'pit'
'mum_'
'loyalty_'
'kho'
'etc_'
'begging_'
'Santiago_'
'Beckett_'
'Abu_'
'zer_'
'wars_'
'tragedy_'
'shoe_'
'serving_'
'rách_'
'prime_'
'increased_'
'hal'
'engineers_'
'down'
'dea'
'bun'
'Whether_'
'Trang_'
'Rosie_'
'Quần_'
'Oo'
'Heaven_'
'Chim_'
'//_'
'è_'
'vuốt_'
'thoáng_'
'technical_'
'rats_'
'poo'
'notion_'
'helpful_'
'closet_'
'claims_'
'chemistry_'
'bách_'
'Ve'
'RACHEL_'
'Pen'
'Jerusalem_'
'Hân_'
'Hector_'
'- ... _'
'," "_'
'điêu_'
'subs'
'palace_'
'operate_'
'hạch_'
'hostage_'
'determined_'
'cro'
'aim_'
'Sel'
'Lái_'
'Đào_'
'xuô_'
'sticks_'
'safely_'
'rolling_'
'punishment_'
'grows_'
'gle_'
'fla'
'crown_'
'Top_'
'LE_'
'Free_'
'Cha'
'Ủy_'
'wagon_'
'sins_'
'senses_'
'propose_'
'oon_'
'ngợi_'
'mad'
'landing_'
'hug_'
'Qui'
'Phục_'
'Phân_'
'Nghị_'
'Mật_'
'March_'
'Kids_'
'Book_'
'4'
'đái_'
'tt'
'pping_'
'minister_'
'kidnapped_'
'fighter_'
'citizen_'
'bùa_'
'bug_'
'Viết_'
'Vel'
'True_'
'Play_'
'PD_'
'HI'
'Cal_'
'20'
'uti'
'sty_'
'severe_'
'sand'
'possibilities_'
'packed_'
'mighty_'
'hid_'
'ght'
'corn_'
'Vòng_'
'Trần_'
'Quy_'
'Korean_'
'Human_'
'Governor_'
'21'
'196'
'vin'
'tur'
'profound_'
'ib'
'hopes_'
'galaxy_'
'determine_'
'conscious_'
'Room_'
'Gor'
'Golden_'
'Cuba_'
'súp_'
'nhạo_'
'limits_'
'fi'
'cuts_'
'considering_'
'ach'
'Tạo_'
'Sát_'
'Stu'
'SU'
'Merlin_'
'Lớn_'
'July_'
'Buồn_'
'tics_'
'mỡ_'
'graduate_'
'gle'
'Wendy_'
'Wei'
'Tiêu_'
'Thursday_'
'237_'
'uk_'
'poetry_'
'pitch_'
'lawyers_'
'horn_'
'gg'
'eri'
'dropping_'
'boots_'
'Nelson_'
'Hawaii_'
'Erik_'
'Caitlin_'
'Bô_'
'Ối_'
'ỉ_'
'une'
'sweat_'
'string_'
'shi_'
'ráp_'
'lli'
'conversations_'
'chick_'
'black'
'Sli'
'Sig'
'Se'
'Richie_'
'Donna_'
'! -_'
'đầm_'
'stake_'
'signature_'
'shark_'
'ru_'
'rounds_'
'dun'
'Together_'
'Jeremy_'
'ăm_'
'¿_'
'telephone_'
'swing_'
'represents_'
'nã_'
'ngạo_'
'mus'
'liễu_'
'lat'
'intense_'
'ici'
'hopefully_'
'friendship_'
'drawn_'
'division_'
'corruption_'
'complexity_'
'abilities_'
'Zeus_'
'Thê_'
'Tam_'
'Sto'
'Sad'
'Global_'
'Deep_'
'Cam_'
'ặc_'
'nhị_'
'moi_'
'log'
'joint_'
'izing_'
'granted_'
'ep'
'burden_'
'boats_'
'are'
'Secretary_'
'Quickly_'
'Lauren_'
'Chất_'
'Ce'
'Bullshit_'
'190'
'xt'
'wounds_'
'tam_'
'shield_'
'phì_'
'one'
'nêu_'
'ino_'
'ik'
'commander_'
'backs_'
'au_'
'attractive_'
'ami'
'ack_'
'Veronica_'
'Hot_'
'Harrison_'
'Dutch_'
'videos_'
'tribe_'
'trials_'
'star'
'relevant_'
'pace_'
'na'
'maid_'
'fifth_'
'duc'
'cock'
'clo'
'beside_'
'Wasn_'
'Ol'
'Ohio_'
'Merry_'
'Lin'
'League_'
'Later_'
'Lane_'
'Gri'
'2011_'
'àh_'
'sập_'
'oni'
'ke'
'interact_'
'ines_'
'hur'
'embrace_'
'concrete_'
'colleague_'
'authorities_'
'Lạ_'
'Kh_'
'Dea'
'Chậm_'
' &_'
'Đá_'
'vers_'
'stein_'
'stand'
'pile_'
'lẩn_'
'funding_'
'detect_'
'Name_'
'Jules_'
'Austin_'
'ỡ_'
'ye'
'thiê_'
'tale_'
'settled_'
'scream_'
'qui_'
'khe_'
'digging_'
'cm_'
'cho'
'charged_'
'ak'
'TT'
'Mua_'
'Gold_'
'tent_'
'rings_'
'principles_'
'phi'
'nhiếp_'
'monitor_'
'khiếm_'
'hyper'
'error_'
'dge_'
'counter_'
'chổ_'
'Mạng_'
'Much_'
'Halloween_'
'úng_'
'wind'
'technique_'
'suspicious_'
'samples_'
'organ_'
'lọt_'
'jet_'
'fights_'
'fears_'
'ensure_'
'district_'
'buồm_'
'Med'
'Mat'
'Lizzy_'
'Kev_'
'Hol'
'Hal_'
'FO'
'During_'
'tch_'
'sy'
'pu'
'painted_'
'methods_'
'meetings_'
'iz'
'hunter_'
'eva'
'entry_'
'chamber_'
'accurate_'
'Simmons_'
'Girls_'
'Fro'
'Bol'
'Bio'
'̃._'
'rập_'
'resist_'
'muscles_'
'killers_'
'hoành_'
'engagement_'
'damaged_'
'Tu_'
'Travis_'
'Tin'
'Thẩm_'
'Mot'
'Moore_'
'Mayor_'
'Honestly_'
'2005_'
'-'
'youth_'
'xoá_'
'tè_'
'rest'
'rely_'
'rag'
'orange_'
'inn'
'head'
'genome_'
'efforts_'
'Woody_'
'Sơn_'
'Out'
'NH'
'LE'
'Having_'
'Chụp_'
'wore_'
'vest_'
'stro'
'owned_'
'frankly_'
'Stifler_'
'Space_'
'Peace_'
'Klaus_'
'Jefferson_'
'Collins_'
'Chan'
'ề'
'ven_'
'traitor_'
'sar'
'reminds_'
'motor_'
'hard'
'documents_'
'dam'
'cươ_'
'chemicals_'
'Williams_'
'Trevor_'
'Giữa_'
'Chia_'
'Awesome_'
'ềm_'
'xỉn_'
'uri'
'fits_'
'bịa_'
'Fair_'
'End_'
'Buck'
'Andrea_'
'- [ _'
'reaching_'
'quăng_'
'no'
'merely_'
'lie'
'ett_'
'ena'
'classic_'
'bears_'
'ative_'
'Wikipedia_'
'Tuesday_'
'Rei'
'Live_'
'Erin_'
'Director_'
'Crazy_'
'Az'
'sergeant_'
'ridge_'
'resistance_'
'recording_'
'provided_'
'needle_'
'mun'
'mid_'
'fathers_'
'bon_'
'Tầm_'
'Seattle_'
'Reed_'
'Mor'
'Han'
'♪ '
'ét_'
'xen_'
'wallet_'
'unlike_'
'practically_'
'láo_'
'kers_'
'informed_'
'dive_'
'bitches_'
'Se_'
'NI'
'Lịch_'
'Lind'
'Leonardo_'
'Bernie_'
'41_'
'!" _'
'ế_'
'vani'
'routine_'
'personality_'
'nươ_'
'nhổ_'
'ives_'
'ition_'
'hen_'
'eg'
'ee'
'dặn_'
'concerns_'
'budget_'
'Understand_'
'Scotty_'
'Ren'
'Nor'
'Lệnh_'
'LL_'
'Bauer_'
'ần_'
'terror_'
'sel'
'quarters_'
'pon'
'organisms_'
'irre'
'coach_'
'Th_'
'Owen_'
'ru'
'ration_'
'pe'
'patch_'
'nhồi_'
'mảng_'
'grand'
'fiction_'
'elli'
'ders_'
'bìa_'
'bust_'
'Vùng_'
'Mala'
'Christine_'
'AM_'
'! "_'
'ố_'
'́!_'
'xơ_'
'ud'
'surgeon_'
'rocket_'
'organic_'
'ology_'
'lân_'
'logical_'
'kiềm_'
'independent_'
'cultures_'
'Woo_'
'Ruth_'
'Mag'
'Et'
'Dory_'
'Damon_'
'Bo'
'- '
'đĩ_'
'vice_'
'subjects_'
'smiling_'
'robbery_'
'rin'
'ef'
'Sid_'
'Push_'
'Germans_'
'Bernard_'
'83_'
'xưng_'
'threats_'
'injury_'
'hospitals_'
'badge_'
'Wo'
'Rand_'
'Bán_'
'Bri'
'servant_'
'refused_'
'nít_'
'launched_'
'invitation_'
'dignity_'
'define_'
'Sin'
'Lưu_'
'Gol'
'Ele'
'Detroit_'
' # _'
'uc'
'raw_'
'quậy_'
'politicians_'
'ick_'
'floating_'
'counter'
'ceremony_'
'Truyền_'
'Sen'
'Navy_'
'Cer'
'Cab'
'Ama'
'Air'
'Đen_'
'waters_'
'unt'
'tủy_'
'tooth_'
'soda_'
'raising_'
'pro_'
'né_'
'hot'
'exc'
'dra'
'Wong_'
'Valentine_'
'The'
'Rin'
'Nicole_'
'Kal'
'Jan'
'Dis'
'Cru'
'Cher'
'Cass_'
'Bus'
'Atlantic_'
'yn'
'sma'
'repair_'
'phế_'
'ora'
'mister_'
'martial_'
'cõi_'
'attached_'
'ato'
'Zero_'
'Stanford_'
'Pra'
'Op'
'DI'
'7921_'
'timing_'
'statistics_'
'salt_'
'nến_'
'nearby_'
'musical_'
'brief_'
'air'
'Work_'
'Wil'
'Thu_'
'THIS_'
'Sebastian_'
'Rốt_'
'Pacific_'
'Jer'
'Daryl_'
'Buddha_'
'Bruno_'
'2006_'
'náo_'
'my'
'min'
'khâu_'
'ened_'
'endo'
'disorder_'
'covering_'
'campus_'
'cable_'
'Slade_'
'Phó_'
'Gan'
'Chan_'
'BR'
'Admiral_'
'AN_'
'zation_'
'vehicles_'
'sea'
'rape_'
'nest_'
'fe_'
'cặn_'
'cared_'
'blast_'
'bing_'
'acid_'
'Sm'
'Par'
'NO'
'Mountain_'
'Joffrey_'
'Elliot_'
'Cúi_'
'ừ'
'èo_'
'wives_'
'ron'
'noon_'
'medication_'
'khoăn_'
'jazz_'
'hiếu_'
'chips_'
'bride_'
'airplane_'
'You'
'Cư_'
'64_'
'2012_'
'ởi_'
'xoáy_'
'visited_'
'toys_'
'suggests_'
'st'
'ric_'
'marketing_'
'hing_'
'gt'
'gon'
'commitment_'
'az'
'ats_'
'Ran'
'Pit'
'Nửa_'
'Nỗi_'
'NO_'
'Liz_'
'Kì_'
'Hay'
'Ex'
'Eu'
'virtual_'
'thẳm_'
'privilege_'
'nộ_'
'mur'
'mud_'
'moo'
'ld_'
'globe_'
'ement_'
'crush_'
'beaten_'
'ari'
'Turns_'
'Soviet_'
'Science_'
'Rap'
'Phim_'
'Jonathan_'
'Hen'
'Frodo_'
'Dark_'
'ột_'
'ương_'
'xoắn_'
'urgent_'
'trauma_'
'stu'
'ova'
'eau_'
'cán_'
'craft_'
'chen_'
'cap_'
'asses_'
'Wrong_'
'Service_'
'Secret_'
'Ném_'
'Glo'
'À'
'traveled_'
'thủng_'
'suggesting_'
'shu'
'serial_'
'pigs_'
'phrase_'
'phase_'
'nic'
'layer_'
'lad'
'eti'
'bin_'
'attend_'
'Philip_'
'Over'
'KI'
'Hotel_'
'Had'
'Fe'
'Dru'
'Carolina_'
'Ari'
'.!_'
' “_'
'xy_'
'tor'
'sheet_'
'pa'
'nder'
'malaria_'
'identified_'
'distant_'
'dia'
'comment_'
'cleaned_'
'cigarette_'
'applied_'
'PE'
'Char'
'variety_'
'unable_'
'tube_'
'someplace_'
'snow'
'permanent_'
'ond'
'nder_'
'impression_'
'holiday_'
'height_'
'gar_'
'erman_'
'dimensional_'
'băn_'
'bol'
'Tí_'
'Project_'
'Mack_'
'Id'
'Bryan_'
'Britain_'
'Baxter_'
'xuôi_'
'wa'
'vel'
'ultimate_'
'tea'
'sink_'
'shaped_'
'nháy_'
'ich_'
'existed_'
'ela'
'bubble_'
'admire_'
'Wit'
'Vớ_'
'Sher'
'Prepare_'
'Om'
'Nắm_'
'Murphy_'
'Kenny_'
'CH_'
' .. _'
'ói_'
'ò_'
'you'
'sur'
'scar'
'rp'
'ran'
'perception_'
'movements_'
'llo_'
'liêng_'
'kissed_'
'interrupt_'
'gentle_'
'freeze_'
'freaking_'
'fires_'
'din_'
'bre'
'Mo_'
'Makes_'
'BU'
'worldwide_'
'user_'
'tẩu_'
'sco'
'q'
'nghiêng_'
'murders_'
'ject'
'embarrassed_'
'bẩm_'
'awkward_'
'appeared_'
'Tower_'
'Took_'
'Toby_'
'Thỏa_'
'Russell_'
'Ok'
'Madame_'
'Beach_'
'900_'
'ọc_'
'tuyê_'
'located_'
'enjoying_'
'designer_'
'demands_'
'comin_'
'bleed_'
'answering_'
'Me'
'JA'
'Am'
'ển_'
'tors_'
'sưởi_'
'outcome_'
'ese_'
'bet'
'Tường_'
'Mun'
'ME'
'Congo_'
'7883_'
' ", _'
'ủ_'
'ợng_'
'°_'
'wel'
'ures_'
'uk'
'relative_'
'nk_'
'lười_'
'kar'
'insist_'
'hall'
'eo'
'coo'
'Winterfell_'
'Wang_'
'Thân_'
'Mexican_'
'Luân_'
'Kit'
'El'
'Christopher_'
'Audience_'
'rỡ_'
'rt'
'returning_'
'hen'
'frightened_'
'fluid_'
'bưu_'
'bo'
'beloved_'
'ara_'
'ano'
'Var'
'Inside_'
'Cyrus_'
'AC'
'zi_'
'will'
'unbelievable_'
'stepped_'
'smooth_'
'pers_'
'oldest_'
'messing_'
'lúa_'
'insects_'
'cocaine_'
'choáng_'
'bond_'
'beard_'
'auto'
'Venice_'
'SIGHS_'
'Mad'
'Hear_'
'Faster_'
'Certainly_'
'Bec'
'Batman_'
'đúc_'
'universal_'
'terribly_'
'techniques_'
'sh'
'khờ_'
'hin'
'ear'
'dưa_'
'clinical_'
'ana'
'Perry_'
'Nate_'
'Kira_'
'Ac'
'ậy_'
'vịnh_'
'stor'
'spreading_'
'mư'
'meantime_'
'films_'
'encourage_'
'damned_'
'cua_'
'Vietnam_'
'Vice_'
'Khỏi_'
'Green'
'Dec'
'AS'
'-** _'
'work'
'tạng_'
'purse_'
'passionate_'
'ol'
'ius_'
'is'
'hun'
'gran'
'gom_'
'foundation_'
'contain_'
'ced_'
'boxing_'
'Wally_'
'Reg'
'Pardon_'
'Mit'
'MI'
'Dep'
'DC_'
'Club_'
'Ơn_'
'đậm_'
'Đổi_'
'unsub_'
'sti'
'rifle_'
'pulse_'
'positions_'
'phiến_'
'nda'
'increasingly_'
'guilt_'
'bàng_'
'September_'
'Ree'
'Phil'
'Nguồn_'
'Natalie_'
'Hudson_'
'Geeta_'
'Dẫn_'
'Anthony_'
'Ahem_'
'/ _'
'ực_'
'weed_'
'sol'
'recognized_'
'owns_'
'nhàm_'
'loop_'
'khiết_'
'invention_'
'gs'
'display_'
'cus_'
'contains_'
'can'
'Mister_'
'Kur'
'Family_'
'Court_'
'Capitol_'
'51_'
'ón_'
'vault_'
'triệt_'
'tops_'
'situations_'
'lions_'
'instrument_'
'cortex_'
'continent_'
'amongst_'
'SC'
'Mul'
'Monroe_'
'Der'
'Control_'
'uns'
'rew'
'plot_'
'pill_'
'passes_'
'oun'
'od_'
'intended_'
'happier_'
'factor_'
'equally_'
'cation_'
'bend_'
'assumed_'
'afterwards_'
'Yo'
'Wallace_'
'Todd_'
'PA'
'Ghi_'
'Damien_'
'DOOR_'
'CL'
'Boo'
'21st_'
'vẫy_'
'te'
'rum_'
'recover_'
'peaceful_'
'officially_'
'hon'
'gâ_'
'generally_'
'frequency_'
'downtown_'
'cáu_'
'Sho'
'Read_'
'Raven_'
'Newton_'
'Justice_'
'Gwen_'
'Gru'
'Cambridge_'
'CA'
'2004_'
'ọ_'
'ud_'
'sophisticated_'
'oin'
'mili'
'duyên_'
'continued_'
'closest_'
'chèo_'
'WA'
'Tra_'
'Stefan_'
'Miranda_'
'Las_'
'Council_'
'Burrows_'
'Arizona_'
'59_'
'òi_'
'vướng_'
'tuỳ_'
'tar_'
'starving_'
'school'
'roots_'
'pol'
'narrative_'
'free'
'finest_'
'element_'
'bổng_'
'bế_'
'Tess_'
'Patty_'
'Party_'
'Lòng_'
'Inspector_'
'Hee_'
'Dám_'
'Bre'
'xót_'
'wrap_'
'vis'
'threatening_'
'rot'
'precisely_'
'operations_'
'oc'
'farmer_'
'dealer_'
'cor'
'colo'
'cheating_'
'Xét_'
'Sách_'
'Nhắm_'
'Ji'
'Fo'
'Douglas_'
'Act_'
'Ú'
'yd'
'witnesses_'
'trucks_'
'practical_'
'mốc_'
'mb'
'inches_'
'ideal_'
'hic'
'gifts_'
'furniture_'
'ere'
'demons_'
'Sak'
'Pat_'
'JC_'
'Gallagher_'
'Gall'
'Bing_'
'via_'
'tune_'
'sive_'
'rage_'
'rabbit_'
'priority_'
'play'
'penis_'
'gue_'
'ger'
'deadly_'
'Yoo_'
'Stanley_'
'Nak_'
'Data_'
'" -- _'
'đùi_'
'review_'
'rect'
'rac'
'protocol_'
'nắp_'
'lity_'
'ization_'
'backwards_'
'angels_'
'ala'
'SE'
'Julian_'
'Dro'
'Arnold_'
'yer_'
'tivi_'
'roo'
'react_'
'pretending_'
'oceans_'
'nano'
'hol'
'han'
'goals_'
'entering_'
'ema'
'dor'
'controls_'
'armor_'
'Vince_'
'Sue_'
'Rose'
'Randy_'
'PA_'
'Dylan_'
'Charley_'
'Amber_'
'''
'đũa_'
'át_'
'visible_'
'sòng_'
'shapes_'
'right'
'password_'
'lla'
'les'
'intention_'
'indi'
'illusion_'
'gad'
'ax_'
'ates_'
'Wor'
'Su_'
'Ski'
'Ny'
'Ker'
'Face_'
'%'
'ux_'
'sends_'
'royal_'
'ral_'
'opi'
'nti'
'log_'
'it'
'increasing_'
'existing_'
'ew'
'enjoyed_'
'distribution_'
'deco'
'arranged_'
'Whe'
'Ra'
'Cairo_'
'Buzz_'
'Bailey_'
'Arctic_'
'wolves_'
'wea'
'sương_'
'plates_'
'ngh_'
'kề_'
'homeless_'
'halfway_'
'feedback_'
'bôi_'
'bowl_'
'assistance_'
'an'
'Tấn_'
'Trying_'
'Col'
'Bear_'
'7'
'zy_'
'vã_'
'tro'
'pockets_'
'penguins_'
'nta'
'mega'
'habit_'
'dish_'
'depend_'
'Tracy_'
'Suỵt_'
'Shane_'
'Monkey_'
'MP'
'Leon_'
'Hổ_'
'Found_'
'Ellis_'
'Cy'
'Cur'
'Bạch_'
'Boom_'
'Al'
'ễn_'
'recovery_'
'nhúng_'
'molecule_'
'lách_'
'lar_'
'interaction_'
'gym_'
'guitar_'
'ele'
'counts_'
'charming_'
'bậy_'
'approaching_'
'Wea'
'Phù_'
'Mira'
'Hă_'
'Falcone_'
'CS'
'Đệch_'
'spirits_'
'shadows_'
'ress_'
'pump_'
'proceed_'
'nothin_'
'length_'
'khống_'
'khăng_'
'iat'
'fastest_'
'elephant_'
'còi_'
'crossing_'
'assignment_'
'Yuri_'
'Too'
'TED'
'Spain_'
'Ireland_'
'As'
'Anti'
'53_'
' -**_'
'ưng_'
'users_'
'sun'
'storage_'
'rổ_'
'q_'
'pun'
'porn_'
'metaphor_'
'líu_'
'in'
'hunger_'
'găng_'
'generate_'
'factors_'
'etic_'
'allowing_'
'Tha'
'Shouldn_'
'SS'
'Pennsylvania_'
'Nhi_'
'News_'
'Glad_'
'Bac'
'ị_'
'xỉ_'
'underwater_'
'ngự_'
'micro_'
'khu'
'customer_'
'cheat_'
'berg_'
'TS_'
'Myr'
'Lots_'
'Khởi_'
'January_'
'Indians_'
'Dre'
'BOTH_'
'25'
'0s_'
') '
'vách_'
'sừng_'
'sat'
'radical_'
'homework_'
'hn'
'defi'
'catching_'
'\\_'
'Quỳ_'
'Pass_'
'Pa'
'Nâng_'
'LAUGHING_'
'Elias_'
'Des'
'Delaney_'
'Cover_'
'Bag'
'ạc_'
'Đời_'
'tựu_'
'trơn_'
'somewhat_'
'rin_'
'rel'
'od'
'nan'
'mankind_'
'ith'
'filthy_'
'Spi'
'Spencer_'
'Lor'
'Kick_'
'Frankenstein_'
'Dunbar_'
'Definitely_'
'Darling_'
'Christ'
'Bourne_'
'Bat'
'2003_'
'vodka_'
'thét_'
'sâm_'
'stretch_'
'phím_'
'oll'
'nạt_'
'linked_'
'land'
'ish'
'grace_'
'giô_'
'fi_'
'cọ_'
'Tre'
'International_'
'Hung_'
'Glenn_'
'Bush_'
'Ag'
'242_'
'03_'
'! (_'
'yu'
'stri'
'sounded_'
'raped_'
'prints_'
'prey_'
'lightning_'
'jumping_'
'funds_'
'fro'
'doll_'
'disco'
'description_'
'Warren_'
'Sydney_'
'Quinn_'
'Ocean_'
'Ngoan_'
'Gran'
'Dallas_'
'Carl'
'Breathe_'
'1980_'
'vặn_'
'time'
'remaining_'
'overt'
'nhủ_'
'khoáng_'
'journalist_'
'gre'
'fri'
'formula_'
'co'
'châ_'
'bid_'
'adi'
'Quái_'
'Pay_'
'Luci'
'FR'
'Done_'
'DA'
'Blo'
'vùi_'
'tn'
'terrified_'
'sphere_'
'res'
'joining_'
'giếng_'
'aircraft_'
'Năng_'
'Mối_'
'Jewish_'
'Duncan_'
'BE_'
'AM'
'- '_'
'ult'
'tỉa_'
'thấm_'
'tennis_'
'session_'
'recommend_'
'qua'
'phác_'
'mầm_'
'mol'
'maps_'
'mal'
'legacy_'
'jokes_'
'gri'
'foolish_'
'eni'
'divide_'
'depressed_'
'corporate_'
'bầm_'
'bì_'
'Vin'
'Tro'
'Olivia_'
'Nik'
'Jess_'
'Dựa_'
'Colorado_'
'2015_'
'ạt_'
'tọa_'
'tặc_'
'struggling_'
'sharks_'
'roughly_'
'phiện_'
'ori'
'ns'
'nhì_'
'nhai_'
'jack_'
'hơ_'
'housing_'
'gathering_'
'diagnosis_'
'deli'
'bold_'
'ave'
'Sun'
'Stein_'
'Road_'
'Mir'
'Mem'
'Khiến_'
'Escobar_'
'Comp'
'vital_'
'tal_'
'squad_'
'sales_'
'ren'
'rapidly_'
'pays_'
'paintings_'
'ows_'
'neuro'
'fewer_'
'dynamic_'
'dreamed_'
'document_'
'collapse_'
'chật_'
'ann'
'UN'
'Hal'
'Cop'
'Ca'
'Ali'
'Ale'
'Abe_'
'49_'
'solving_'
'lit_'
'inspiration_'
'bịt_'
'ant'
'Sor'
'SPEAKING_'
'OR'
'Mark'
'Gin'
'. - '
'xoa_'
'separated_'
'rch'
'powder_'
'poster_'
'pointed_'
'ngậm_'
'ight_'
'ida'
'hh_'
'hem'
'ft'
'drew_'
'con'
'collected_'
'ca'
'at'
'TE'
'Rep'
'Phoenix_'
'Hiệu_'
'Full_'
'AB'
',' _'
'soap_'
'ngơ_'
'kìm_'
'gla'
'escort_'
'conclusion_'
'Told_'
'Pal'
'Nas'
'Jar'
'Game_'
'FI'
'FF'
'Cross_'
'Biển_'
'05_'
'yểm_'
'vessel_'
'ue'
'tà_'
'mates_'
'léo_'
'hăng_'
'hâ_'
'heroin_'
'gathered_'
'chuối_'
'cen'
'bil'
'aw_'
'Vic_'
'Stupid_'
'PI'
'Ngươ_'
'Lu_'
'Jump_'
'Bridge_'
'Ana_'
') -- _'
'ỉa_'
'Đều_'
'sting_'
'presents_'
'pole_'
'philosophy_'
'occur_'
'nóc_'
'nephew_'
'mánh_'
'mathematics_'
'inform_'
'ice'
'gt_'
'ct'
'chọi_'
'annoying_'
'Xô_'
'Uganda_'
'OR_'
'Lôi_'
'Gloria_'
'Crowley_'
'Calvin_'
'ụ'
'wn'
'virgin_'
'unde'
'terrorism_'
'rural_'
'rd'
'quantum_'
'processes_'
'potentially_'
'perimeter_'
'ná'
'nai_'
'dates_'
'chop_'
'brush_'
'Zo'
'Gà_'
'CI'
'Bella_'
'24'
'uy'
'nse'
'lẫy_'
'iri'
'ial'
'fucker_'
'directions_'
'defined_'
'dan'
'check'
'Yup_'
'Spider_'
'Sharon_'
'Ralph_'
'Que'
'Muslim_'
'Morris_'
'LAUGHS_'
'Kathy_'
'IS'
'Hei'
'Eugene_'
'Cu_'
'Ami'
'ỷ_'
'uin'
'sync_'
'subway_'
'shing_'
'shares_'
'para'
'meta_'
'lab'
'dots_'
'dedicated_'
'autism_'
'Tôn_'
'Theodore_'
'Surely_'
'Sing_'
'Ow'
'Katniss_'
'Gen'
'Funny_'
'ER'
'twenty_'
'tory_'
'recognition_'
'properties_'
'equivalent_'
'drops_'
'arrow_'
'Tâ_'
'Sử_'
'Quảng_'
'Nghi_'
'Mikey_'
'Cynthia_'
'Chat'
'yo'
'xui_'
'topic_'
'son'
'poisoned_'
'participate_'
'overcome_'
'lẻn_'
'luồng_'
'hạm_'
'gầy_'
'grant_'
'facial_'
'ess'
'cognitive_'
'burg_'
'bou'
'application_'
'and'
'Trạm_'
'Tas'
'Sugar_'
'Quyết_'
'Lâm_'
'Isabelle_'
'Franc'
'Dy'
'57_'
'ệp_'
'ơ'
'yc'
'tragic_'
'sters_'
'slu'
'sauce_'
'restore_'
'refugees_'
'poker_'
'pha'
'nge_'
'negotiate_'
'madam_'
'gin_'
'fal'
'WAS_'
'Station_'
'Nat'
'Michigan_'
'Lud'
'Change_'
'CE_'
'Bloody_'
'23'
'ồi_'
'̉, _'
'Đột_'
'xu'
'transportation_'
'strip_'
'shortly_'
'replaced_'
'ree'
'psychological_'
'proved_'
'planes_'
'photo'
'ia'
'giâ_'
'freezing_'
'challenging_'
'Xuất_'
'Romeo_'
'Pam_'
'Pac'
'Nikita_'
'Lost_'
'Jeez_'
'Guard_'
'Grey_'
'Ec'
'Dây_'
'Ak'
'ếu_'
'yelling_'
'vampire_'
'sunlight_'
'sneak_'
'processing_'
'patience_'
'ort'
'mic_'
'meaningful_'
'loo'
'jam'
'dưng_'
'del'
'berry_'
'amounts_'
'YOUR_'
'Min_'
'Line_'
'Kara'
'Fall_'
'Diễn_'
'DO_'
'Bru'
'54_'
'2016_'
'ợ_'
'ẹt_'
'ặn_'
'đôla_'
'temporary_'
'reminded_'
'relatively_'
'nhi'
'khoán_'
'ker'
'idiots_'
'gu_'
'dơi_'
'chẽ_'
'Tesla_'
'TA'
'Rh'
'Republic_'
'Fla'
'Dọn_'
'Craig_'
'ẩu_'
'Đấu_'
'worries_'
'understands_'
'transplant_'
'spots_'
'rad'
'quạ_'
'ow'
'line'
'healing_'
'fort_'
'ert_'
'cart_'
'Super'
'Private_'
'Phá_'
'November_'
'Hospital_'
'Gro'
'Er_'
'Empire_'
'CK_'
'Bitch_'
'éo_'
'ura'
'seeking_'
'owed_'
'nia_'
'lou'
'lau'
'knight_'
'dan_'
'conscience_'
'confession_'
'bọt_'
'burst_'
'Making_'
'Made_'
'Hum'
'Fifty_'
'Dur'
'Brothers_'
'Bit'
'Bet'
'ắng_'
'xuẩn_'
'ut'
'tus_'
'ros'
'hie'
'der'
'confess_'
'codes_'
'cil'
'atoms_'
'ang'
'Vis'
'Trư'
'Spo'
'Mick_'
'Kha'
'Io'
'Carr'
'Burn'
'Alo_'
'Allison_'
',..._'
'qu_'
'punish_'
'nghiê_'
'manner_'
'ló'
'là'
'keo_'
'inte'
'dock_'
'del_'
'củng_'
'cưa_'
'ction_'
'Yay_'
'Thất_'
'Taka'
'Quản_'
'Mou'
'Les'
'Labs_'
'GA'
'Eyes_'
'Apollo_'
'Ab'
'điếc_'
'woo_'
'vạt_'
'vin_'
'seed_'
'resource_'
'passport_'
'ome'
'ith_'
'glo'
'fee_'
'fantasy_'
'emissions_'
'chích_'
'bro'
'abo'
'Titan_'
'IT'
'Ara'
'77_'
'2014_'
'" '
'yan'
'wrapped_'
'wheels_'
'vác_'
'volume_'
'tui_'
'tab'
'stra'
'somethin_'
'shocked_'
'rò_'
'rie'
'producing_'
'paperwork_'
'leak_'
'gross_'
'completed_'
'chửi_'
'ceiling_'
'buô_'
'anxiety_'
'album_'
'Satan_'
'Lập_'
'Janice_'
'Goo'
'Gal'
'Bot'
'Beli'
'Angel_'
'Allah_'
'AT_'
'58_'
'2001_'
'đu'
'win'
'whip_'
'ured_'
'rùa_'
'rìa_'
'roi_'
'reference_'
'phanh_'
'nhích_'
'ness'
'len'
'lap_'
'inevitable_'
'dỡ_'
'dru'
'dragged_'
'cou'
'choosing_'
'butt'
'beef_'
'abandon_'
'Tầng_'
'Tiger_'
'Tat'
'Ry'
'Remy_'
'Noo'
'IR'
'Health_'
'Eastern_'
'Crixus_'
'xảo_'
'vor'
'shore_'
'secretary_'
'rầy_'
'ris'
'ola'
'occasion_'
'narrow_'
'effectively_'
'collecting_'
'busted_'
'accused_'
'Southern_'
'Sleep_'
'Petrelli_'
'Lorraine_'
'KH'
'JOEY_'
'Giấy_'
'Dòng_'
'Bron'
'Alison_'
'78'
'đệm_'
'ws_'
'vượng_'
'trặc_'
'spi'
'rick_'
'relief_'
'personnel_'
'laundry_'
'institution_'
'et'
'elsewhere_'
'demo'
'compound_'
'Pres'
'October_'
'Mount_'
'Montana_'
'Ky'
'Helena_'
'Chữ_'
'02_'
'upt'
'thảy_'
'sona'
'sim'
'preparing_'
'passengers_'
'mill_'
'mechanism_'
'lươ_'
'kissing_'
'key'
'gào_'
'gru'
'grain_'
'domestic_'
'disc'
'betray_'
'believing_'
'Sei'
'Olympic_'
'Nguy_'
'Lock_'
'Hail_'
'HE'
'Grandpa_'
'Cold_'
'Bull_'
'Apache_'
'Angie_'
'đi'
'unhappy_'
'transferred_'
'sỉ_'
'swi'
'stun'
'standards_'
'ssion_'
'oti'
'iest_'
'grounds_'
'deserved_'
'deaf_'
'cooperation_'
'consumption_'
'awareness_'
'ae'
'Vienna_'
'Sp'
'Khí_'
'Jude_'
'Into_'
'Deal_'
'Ang'
'Andre_'
','
'worrying_'
'und_'
'tempt'
'sel_'
'returns_'
'ras'
'posted_'
'ny'
'medium_'
'litera'
'honored_'
'gettin_'
'failing_'
'epidemic_'
'cút_'
'chay_'
'Xanh_'
'Rum'
'ND'
'Institute_'
'IM'
'CE'
'Bun'
'5000_'
'ỏi_'
'ú_'
'ste'
'sno'
'sensors_'
'scen'
'ram_'
'pou'
'outfit_'
'mép_'
'massage_'
'lam'
'fu'
'fle'
'established_'
'chổi_'
'checks_'
'burns_'
'breach_'
'ach_'
'Von_'
'Radio_'
'Não_'
'Ngạc_'
'FOR_'
'Curtis_'
'Chă_'
'Bud_'
'Ấ'
'Đề_'
'whale_'
'visiting_'
'unfortunate_'
'toxic_'
'survivors_'
'sealed_'
'sca'
'precise_'
'ob'
'nhượng_'
'nhúc_'
'makers_'
'lecture_'
'lan'
'identical_'
'ers'
'engines_'
'dai_'
'classified_'
'blessed_'
'West'
'Sang_'
'Nolan_'
'Madison_'
'Lang_'
'Hor'
'Head'
'Fire'
'ung'
'thuô_'
'remi'
'rable_'
'passage_'
'our'
'offers_'
'nsi'
'ngẫm_'
'ngi'
'nH'
'lay'
'joy'
'iti'
'ional_'
'coll'
'cocktail_'
'bời_'
'bor'
'Wal'
'Vịnh_'
'US'
'Tăng_'
'SE_'
'Por'
'Nazir_'
'Met'
'Lionel_'
'Grandma_'
'Fun'
'Columbia_'
'Bir'
'Ball'
'31'
'1960_'
'ă'
'upside_'
'transition_'
'tin'
'ther'
'shoulders_'
'quietly_'
'punk_'
'proven_'
'promises_'
'objective_'
'nail_'
'dot_'
'cur'
'cattle_'
'bot'
'antibiotics_'
'Vera_'
'Superman_'
'Sla'
'Missouri_'
'Kêu_'
'Isabel_'
'EM'
'Boyka_'
'Ber'
'Alaska_'
'Ala'
'Đỡ_'
'Í'
'xes_'
'transformation_'
'toes_'
'salad_'
'sab'
'ppe'
'ica_'
'forests_'
'char'
'author_'
'Tám_'
'Tina_'
'Thợ_'
'Kiss_'
'Business_'
'== _'
'192'
'vãn_'
'teen_'
'suối_'
'suspects_'
'rarely_'
'nấp_'
'nhu'
'nces_'
'lad_'
'gun'
'fairy_'
'eo_'
'candidate_'
'Yesterday_'
'YE'
'Sum'
'Stannis_'
'Sie'
'Ser_'
'Says_'
'Poll'
'Mass'
'Lục_'
'Lỗi_'
'EN_'
'DD'
'Cấp_'
'Crassus_'
'Chang_'
'̣, _'
'warriors_'
'tun'
'tua_'
'tom'
'technically_'
'slipped_'
'rop'
'reporter_'
'rein'
'prayer_'
'pour_'
'ox_'
'nurses_'
'ngầu_'
'mor'
'locks_'
'iro_'
'investigate_'
'giầy_'
'galaxies_'
'cọc_'
'curiosity_'
'chơ_'
'báng_'
'Tap'
'Soo_'
'Sheila_'
'Mon'
'Las'
'Joan_'
'Jews_'
'Interesting_'
'Ia'
'Ei'
'Dem'
'Đôn_'
'yl_'
'viếng_'
'tips_'
'tho'
'spit_'
'retired_'
'missile_'
'lầy_'
'lf_'
'kins_'
'ido'
'goat_'
'gers_'
'exam_'
'elected_'
'eb'
'diamond_'
'designers_'
'bottles_'
'Tộc_'
'Stor'
'Samantha_'
'Luther_'
'Joel_'
'Fat'
'CT_'
'Basically_'
'Ae'
'ỏng_'
'Đuổi_'
'ài_'
'ust_'
'twins_'
'tiger_'
'suggested_'
'spiritual_'
'rs'
'robbed_'
'phết_'
'ote'
'orbit_'
'mỳ_'
'monkeys_'
'molecular_'
'lling_'
'law'
'fort'
'fan'
'deter'
'def'
'dang_'
'cằn_'
'contra'
'broad_'
'assets_'
'algorithms_'
'Ver'
'Square_'
'Sou'
'Senate_'
'Od'
'Flo'
'ES'
'DVD_'
'Buck_'
'! ._'
'ùng_'
'thẹn_'
'theme_'
'syn'
'pleasant_'
'ped'
'ngần_'
'minor_'
'mati'
'master'
'literature_'
'kidney_'
'gor'
'fied_'
'erb'
'cit'
'art'
'anniversary_'
'algorithm_'
'adopted_'
'Yoko_'
'Yale_'
'Whis'
'Tara_'
'Taliban_'
'Rwanda_'
'Mee'
'Liu_'
'Gold'
'Din'
'DR'
'Chappie_'
'Bog'
'Bed'
'" "_'
'ẩy_'
'Đoạn_'
'ã_'
'trillion_'
'spectrum_'
'sman_'
'rải_'
'rot_'
'not'
'nne'
'myth_'
'jury_'
'insight_'
'impe'
'ic'
'functions_'
'fli'
'defeated_'
'council_'
'col'
'cigarettes_'
'ano_'
'Mạch_'
'Môn_'
'Mos'
'Micah_'
'Khóa_'
'Janet_'
'Disney_'
'50'
'1990_'
'('
'ờn_'
'ý'
'ín_'
'yr'
'vit'
'valley_'
'thự_'
'swa'
'outer_'
'nerves_'
'mus_'
'microbes_'
'lis'
'hydrogen_'
'his'
'highway_'
'er'
'dozens_'
'dioxide_'
'communications_'
'ane_'
'acu'
'Within_'
'Tuyết_'
'Tham_'
'Sansa_'
'Rac'
'NOT_'
'MU'
'Let'
'Irish_'
'Ice_'
'Eva_'
'đan_'
'yöu_'
'vent'
'tastes_'
'racing_'
'nhăn_'
'headquarters_'
'gio_'
'gen'
'empathy_'
'ec'
'dig'
'cowboy_'
'coral_'
'blind'
'app_'
'aggressive_'
'Rồng_'
'Order_'
'Leslie_'
'Le_'
'Hydra_'
'Cassi'
'BG_'
'xa'
'vành_'
'uốn_'
'rc'
'rational_'
'oral_'
'nit'
'humble_'
'fur'
'executed_'
'essence_'
'chin_'
'blank_'
'Liam_'
'Inf'
'Heidi_'
'Diệp_'
'Ad'
'3000_'
'wi_'
'wed_'
'ush'
'stores_'
'proposal_'
'nhào_'
'junk_'
'drank_'
'combined_'
'borders_'
'beans_'
'ava'
'ail'
'aa'
'Thi'
'Lenny_'
'Eun'
'Edgar_'
'Cle'
'Bar'
'19th_'
'đắp_'
'whales_'
'ude'
'sheets_'
'resolution_'
'mistaken_'
'mes'
'mere_'
'gam'
'exhausted_'
'elo'
'earthquake_'
'bới_'
'ator_'
'STE'
'ONE_'
'Knock_'
'Kath'
'Este'
'Em'
'Cư'
'Conway_'
'Baltimore_'
'22'
'ằn_'
'tz'
'theories_'
'presented_'
'nano_'
'mining_'
'ita_'
'high'
'ghosts_'
'entertainment_'
'economics_'
'designing_'
'creepy_'
'bert_'
'agenda_'
'acted_'
'Taking_'
'Ras'
'Langley_'
'It'
'Im'
'Gregory_'
'Elijah_'
'Dani'
'Clearly_'
'ị'
'wor'
'warehouse_'
'vessels_'
'toi_'
'thirsty_'
'revealed_'
'reco'
'pursuit_'
'psychology_'
'payment_'
'mas'
'kne'
'grief_'
'fs_'
'finance_'
'dimensions_'
'destroying_'
'butter_'
'asset_'
'appearance_'
'Tou'
'Pay'
'PP'
'GU'
'Friends_'
'Domin'
'Bee'
' ¶_'
'đoa_'
'ule'
'sna'
'sle'
'retirement_'
'neo_'
'mí'
'hat'
'hammer_'
'drone_'
'drivers_'
'bis'
'ast'
'WOMAN_'
'Pole_'
'Pepper_'
'Pad'
'Ngọc_'
'Law_'
'Judge_'
'Jet_'
'Form'
'Cam'
'Bay'
'Arr'
'56_'
' ♫_'
'ắp_'
'ậ'
'đãng_'
'sùng_'
'sê_'
'qualified_'
'magnetic_'
'ena_'
'doo'
'coma_'
'chồn_'
'cer_'
'casino_'
'THING_'
'Sma'
'Sierra_'
'Gabby_'
'Es'
'Bật_'
'ịt_'
'ẫm_'
'Â'
'pointing_'
'intellectual_'
'ella_'
'dre'
'diễu_'
'disagree_'
'corrected_'
'cis'
'bộc_'
'Understood_'
'THE'
'Stella_'
'Singapore_'
'Rom'
'Nhĩ_'
'Marl'
'Marine_'
'Gandalf_'
'FL'
'Evelyn_'
'EX'
'Crow'
'CD_'
'ỏm_'
'Độc_'
'É'
'rob_'
'ritual_'
'prick_'
'pho'
'ome_'
'lộng_'
'folk_'
'corr'
'cking_'
'chart_'
'arrange_'
'anytime_'
'absence_'
'SHE_'
'Ray'
'Po_'
'PHONE_'
'Oregon_'
'Nạn_'
'Nhỏ_'
'NZT_'
'EM_'
'Clyde_'
'Chambers_'
'Catch_'
'Bishop_'
'Bar_'
'Antonio_'
'Ant'
'Already_'
'” _'
'wild'
'uma'
'ula_'
'ten'
'script_'
'satisfied_'
'lim'
'chapter_'
'alt'
'Tennessee_'
'Jupiter_'
'DJ_'
'Carmen_'
'Cai'
' - '
'đốm_'
'~_'
'uter'
'typically_'
'tru_'
'rumors_'
'regions_'
'realm_'
'rated_'
'rain'
'quit'
'ngai_'
'insulin_'
'ink_'
'ina'
'happily_'
'esp'
'educated_'
'dim'
'cub'
'circles_'
'architect_'
'achieved_'
'Spa'
'Night'
'Microsoft_'
'Mega'
'Hugo_'
'Hill'
'Hell'
'Cạn_'
'xịt_'
'thắp_'
'swe'
'sushi_'
'shaking_'
'roa'
'relations_'
'pur'
'praying_'
'pra'
'measures_'
'kicking_'
'khuya_'
'ile'
'il'
'idi'
'hr'
'heck_'
'gling_'
'explode_'
'equation_'
'dip'
'bee'
'apology_'
'accent_'
'Us_'
'Sex_'
'Ngược_'
'Cris'
'ỗ_'
'xít_'
'unlikely_'
'rành_'
'mann_'
'mag'
'gha'
'fortunate_'
'features_'
'den'
'delay_'
'climbing_'
'chặng_'
'bed'
'Wu_'
'Suýt_'
'Small_'
'Ret'
'Masters_'
'Jaime_'
'EL'
'Dol'
'College_'
'Coast_'
'App'
'='
'Ă'
'underwear_'
'shooter_'
'scenario_'
'quar'
'nực_'
'marked_'
'kiêng_'
'dumped_'
'depth_'
'cross'
'Vit'
'Taxi_'
'ROSS_'
'NT'
'NN'
'MONICA_'
'Ic'
'Consider_'
'Car_'
'Bá'
'Beau'
'‎, _'
'with'
'villages_'
'views_'
'ver'
'ua_'
'sky'
'scar_'
'savings_'
'questioning_'
'proteins_'
'outs'
'nguội_'
'mustn_'
'lấn_'
'lia_'
'electro'
'deer_'
'crucial_'
'chùm_'
'bư_'
'belonged_'
'anonymous_'
'UP_'
'Rem'
'Male'
'Graham_'
'Fear_'
'97_'
'Đậu_'
'volunteer_'
'transformed_'
'talkin_'
'reporting_'
'punished_'
'parti'
'kung_'
'god'
'gieo_'
'fur_'
'ene_'
'controlling_'
'comm'
'chải_'
'assuming_'
'ac'
'Zu'
'Wright_'
'Violet_'
'Tun'
'Tiê_'
'See'
'Ngh'
'Ib'
'Around_'
'ãi_'
'vet_'
'see'
'rán_'
're'
'os'
'nat'
'khiê_'
'kan'
'ivi'
'est'
'divided_'
'diss'
'deals_'
'chains_'
'assigned_'
'Tác_'
'Rad'
'Quỹ_'
'Porter_'
'Marvin_'
'Lạnh_'
'Lower_'
'Ing'
'Hug'
'Catholic_'
'Avenue_'
'Ark_'
'translate_'
'peak_'
'ngụ_'
'intel_'
'insult_'
'ille_'
'cào_'
'corpse_'
'concentrate_'
'committee_'
'colonel_'
'clu'
'ap'
'Thắng_'
'Tet'
'SN'
'Raj'
'Parkman_'
'Montgomery_'
'Math'
'Gulf_'
'Chapman_'
'..., _'
'winds_'
'wei'
'ved_'
'ugh'
'there'
'sits_'
'pay'
'particle_'
'nigger_'
'nci'
'manufacturing_'
'inci'
'impos'
'grabbed_'
'fraud_'
'forgiveness_'
'fen'
'depart'
'blessing_'
'ax'
'assa'
'Moo'
'HER_'
'Clean_'
'Chín_'
'Carson_'
'Campbell_'
'Brea'
'Ame'
'đắc_'
'Đẩy_'
'tattoo_'
'surf'
'sticking_'
'ster'
'pad'
'northern_'
'nhược_'
'marine_'
'lls_'
'isolated_'
'into'
'hươ_'
'ham'
'gầm_'
'fans_'
'expectations_'
'environments_'
'depending_'
'bảnh_'
'assholes_'
'ality_'
'alike_'
'Water'
'Ty'
'Thịt_'
'Solomon_'
'Meanwhile_'
'Kingdom_'
'Gene'
'Eg'
'Coffee_'
'Clinton_'
'Camelot_'
'Bell'
' "'
'ự'
'úp_'
'trọ_'
'tol'
'thạo_'
'sme'
'sions_'
'quẩn_'
'providing_'
'part'
'packing_'
'nted_'
'edit'
'critic'
'circuit_'
'chôm_'
'chanh_'
'axit_'
'att'
'ament_'
'ali'
'Zoo'
'Wonderful_'
'Turn'
'Target_'
'Stuart_'
'Phóng_'
'Office_'
'Marion_'
'Lic'
'Lem'
'Him'
'Ghost_'
'Diane_'
'Bronx_'
'Auto'
'ứt_'
'â'
'Ù'
'vitamin_'
'uv'
'undercover_'
'thừng_'
'risky_'
'nhức_'
'kindness_'
'ids_'
'ian'
'háo_'
'governor_'
'far'
'eats_'
'additional_'
'Võ_'
'Vatican_'
'Lothbrok_'
'Ký_'
'Kni'
'August_'
'130_'
'ớ_'
'Ì'
'visions_'
'táng_'
'trains_'
'sk_'
'prototype_'
'nb'
'khuynh_'
'hostages_'
'honour_'
'historical_'
'fer_'
'e'
'coe'
'chuy_'
'chan'
'bừa_'
'Xa_'
'Samaritan_'
'Prote'
'Mak'
'Kai'
'Hou'
'Ghana_'
'Clu'
'Amelia_'
'180_'
'-- '
'đươc_'
'unsu'
'tẻ_'
'tta_'
'suspended_'
'sic'
'presentation_'
'phụng_'
'oath_'
'meds_'
'loses_'
'lee'
'kit_'
'infinite_'
'hóc_'
'enti'
'denied_'
'cord_'
'copies_'
'clothing_'
'all'
'Thương_'
'Summer_'
'Sound_'
'Pur'
'Prentiss_'
'Olive_'
'Mario_'
'Kre'
'HYDRA_'
'Carlo_'
'Can'
'ãn_'
'tý_'
'thieves_'
'snap_'
'ripped_'
'quỵ_'
'penny_'
'ola_'
'nhuộm_'
'ndi'
'mỉa_'
'hook'
'experiencing_'
'expand_'
'ea_'
'destination_'
'chin'
'ah'
'ace'
'Tá'
'Sanders_'
'Po'
'Peabody_'
'Past'
'Mak_'
'Dẹp_'
'Dolores_'
'Cri'
'Christina_'
'Beat'
'2013_'
'ể'
'đục_'
'volunteers_'
'vie_'
'unconscious_'
'tore_'
'ssi'
'smi'
'scenes_'
'qui'
'prices_'
'overnight_'
'om'
'noo'
'nhọn_'
'nghênh_'
'mechanical_'
'lifestyle_'
'ise'
'id'
'hoả_'
'fried_'
'esi'
'em'
'cin'
'Whi'
'Wha'
'Tai'
'Rena'
'Nora_'
'Noel_'
'Nic'
'Louise_'
'Lola_'
'Devil_'
'Cre'
'Arg'
'297_'
'ạng_'
'von_'
'tracked_'
'tortured_'
'thumb_'
'phu'
'lev'
'laboratory_'
'kal'
'fossil_'
'extent_'
'exception_'
'deb'
'cúng_'
'cooperate_'
'compete_'
'cc'
'alli'
'Tur'
'Philly_'
'Northern_'
'IL'
'Hack'
'Food_'
'Fen'
'CR'
'Bă_'
'Archi'
'101_'
'.. .._'
'."'
'washing_'
'truồng_'
'terrific_'
'telescope_'
'sew'
'rợ_'
'ria'
'printing_'
'plug_'
'pic'
'ore'
'nesses_'
'nde'
'ml'
'liê_'
'lessly_'
'ini'
'includes_'
'crashed_'
'concert_'
'bait_'
'amp'
'Unh_'
'Tận_'
'Trí_'
'Till_'
'Somewhere_'
'Sal_'
'Quán_'
'Princeton_'
'OW'
'Nea'
'McGill_'
'Main_'
'Love'
'Jack'
'Alt'
'Alexis_'
'ía_'
'yed_'
'washed_'
'subtle_'
'speaker_'
'scor'
'rã_'
'proposed_'
'items_'
'item_'
'feat'
'fax_'
'ex'
'dinosaurs_'
'chairs_'
'adapt_'
'ada_'
'Working_'
'Theresa_'
'Sylvia_'
'Ouch_'
'Naomi_'
'Machine_'
'MAR'
'Lá_'
'Giai_'
'Fig'
'Chad_'
'Call'
'CT'
'Bak'
'ộ'
'tits_'
'tables_'
'strand'
'stock'
'sli'
'silk_'
'rus_'
'rema'
'receiving_'
'nn_'
'mommy_'
'minimum_'
'initial_'
'ima'
'fetch_'
'ents_'
'enforcement_'
'encounter_'
'arrangement_'
'Yemen_'
'Xu'
'Tho'
'Stone'
'Sala'
'Rip_'
'Oops_'
'Magic_'
'KNOW_'
'Hai'
'Ap'
'ững_'
'ẳng_'
'đ_'
'yoga_'
'trút_'
'triê_'
'taxes_'
'plu'
'outr'
'ole_'
'males_'
'lội_'
'ire_'
'ens'
'els_'
'dươ_'
'cheaper_'
'arguing_'
'alle'
'affects_'
'Word_'
'Tế_'
'Power_'
'Pho'
'Nor_'
'Natasha_'
'Mort'
'Law'
'Jang_'
'Hít_'
'Grand'
'FE'
'Dance_'
'Banks_'
'82_'
'wit'
'wiped_'
'ume'
'threaten_'
'tat'
'sod'
'seeds_'
'scu'
'rta'
'retreat_'
'rap_'
'rab'
'pal'
'meets_'
'itz_'
'itu'
'interface_'
'ily_'
'ight'
'giở_'
'empire_'
'electronic_'
'doc_'
'curve_'
'ads_'
'Zack_'
'TN'
'Rock'
'Hun'
'Glad'
'Ebola_'
'Com'
'Argh_'
'Đấng_'
'Đi'
'wheelchair_'
'survey_'
'sum'
'spider_'
'kings_'
'invent_'
'hardest_'
'excitement_'
'digit'
'descend'
'combine_'
'civilians_'
'bịp_'
'bén_'
'boa'
'bling_'
'beats_'
'associate_'
'anxious_'
'align'
'aga'
'ag'
'Silv'
'Pa_'
'Ob'
'Mur'
'Lun'
'Khác_'
'79_'
'350_'
'ỉnh_'
'Đập_'
'xướng_'
'wired_'
'undi'
'terrifying_'
'subt'
'sei'
'phước_'
'percentage_'
'mìn_'
'infer'
'hưng_'
'fled_'
'diamonds_'
'database_'
'aud'
'Whenever_'
'Sa'
'Roberto_'
'Reynolds_'
'NYPD_'
'Mộc_'
'Jonah_'
'GASPS_'
'Freddy_'
'EE'
'December_'
'By'
'Alb'
'140_'
'ứ'
'ñ'
'yi_'
'tuý_'
'tick_'
'swore_'
'photographer_'
'ose'
'officials_'
'observe_'
'mini'
'mathematical_'
'madness_'
'instruments_'
'hus'
'hl'
'govern'
'gal_'
'edi'
'doo_'
'discipline_'
'cata'
'broadcast_'
'be'
'applications_'
'Qi'
'Napoleon_'
'Lin_'
'Hung'
'Gamb'
'Corn'
'Brick_'
'Bradley_'
'tl'
'tect'
'stare_'
'pto'
'productive_'
'powered_'
'planted_'
'performing_'
'oh'
'nna_'
'meta'
'laughs_'
'lack'
'ini_'
'increases_'
'foot'
'fleet_'
'evolve_'
'esh'
'cursed_'
'arena_'
'Triệu_'
'Ti_'
'Tele'
'Stu_'
'Pap'
'Nh_'
'Doing_'
'Daphne_'
'Amsterdam_'
'1950_'
'." "_'
'twist_'
'squeeze_'
'selection_'
'ringing_'
'rat'
'practicing_'
'lãi_'
'included_'
'gui'
'fighters_'
'fet'
'ever'
'employee_'
'dy'
'dragons_'
'củi_'
'conspiracy_'
'cara'
'cacbon_'
'aliens_'
'ado'
'Silence_'
'Shanghai_'
'HAVE_'
'Gustav'
'All'
'shave_'
'searched_'
'provides_'
'phồng_'
'pea'
'mines_'
'matches_'
'iona'
'ica'
'harvest_'
'fear'
'explaining_'
'emerging_'
'electron_'
'elderman_'
'ek_'
'divine_'
'cried_'
'bump_'
'bias_'
'aj'
'Xã_'
'Who'
'Vận_'
'Tháo_'
'Stick_'
'Scar'
'SW_'
'Pers'
'Naples_'
'Murray_'
'Fletcher_'
'Dạo_'
'' '
'ât_'
'yp'
'strings_'
'sav'
'profits_'
'ngoạn_'
'mỉm_'
'miện_'
'ik_'
'hé_'
'decline_'
'consent_'
'comb'
'cate'
'bin'
'approved_'
'approval_'
'Tấm_'
'Stewart_'
'Search_'
'Ramon_'
'Qaeda_'
'QU'
'Map'
'Hộ_'
'Greenland_'
'Double_'
'Chán_'
'Bug'
'Bart'
'BB'
'27'
'én_'
'viruses_'
'smo'
'pti'
'ons'
'nhe'
'iso'
'grin'
'glorious_'
'figuring_'
'eyed_'
'discussed_'
'deposit_'
'components_'
'bump'
'alley_'
'Screw_'
'Powers_'
'Pee'
'Museum_'
'Mulder_'
'MM'
'GO'
'Eventually_'
'Asian_'
'xe'
'tảo_'
'slice_'
'roommate_'
'nch_'
'kha'
'involves_'
'helmet_'
'hardware_'
'formation_'
'flo'
'ff'
'extra'
'err'
'dit'
'cookies_'
'chill_'
'centers_'
'cau'
'bout_'
'birth'
'apologies_'
'Mei_'
'Luc'
'Less_'
'Gren'
'Dumbledore_'
'Dong_'
'Chung_'
'Ches'
'Burn_'
'Ble'
'thy'
'ske'
'reliable_'
'relatives_'
'possession_'
'gạo_'
'fragile_'
'divorced_'
'conse'
'chess_'
'bugs_'
'break'
'arc'
'Tào_'
'Sh'
'Rog'
'Oc'
'Nikki_'
'Lỗ_'
'Jade_'
'Hop'
'Has'
'Feng_'
'Ellie_'
'DON_'
'Đảo_'
'văng_'
'ruled_'
'recipe_'
'pped_'
'pot'
'pollution_'
'pel'
'pan_'
'ower_'
'ona_'
'mư_'
'multi_'
'ms'
'mp'
'mortal_'
'mall_'
'instant_'
'hro'
'gon_'
'eternal_'
'ean_'
'age'
'WI'
'Tuân_'
'Thompson_'
'Silver_'
'Mãi_'
'Mont'
'Lit'
'Kông_'
'Kích_'
'Jon'
'Hát_'
'Heart_'
'Fisk_'
'Far_'
'Eli'
'Drake_'
'CU'
'Belle_'
'86_'
'đư'
'zz'
'ture_'
'strongly_'
'spe'
'skip_'
'scent_'
'regrets_'
'pt_'
'phang_'
'mn'
'minus_'
'logo_'
'lethal_'
'hấ'
'hid'
'evolutionary_'
'cành_'
'cas'
'cart'
'ashes_'
'agriculture_'
'Tù_'
'Suddenly_'
'Roll'
'Rich_'
'Nền_'
'Mitchell_'
'MY_'
'LD_'
'Freedom_'
'Cate'
'Alabama_'
' )_'
'ơm_'
'zon'
'zh'
'wag'
'senator_'
'sal'
'rên_'
'reflect_'
'plat'
'passenger_'
'obo'
'nom_'
'neural_'
'light'
'iss'
'intact_'
'fools_'
'exposure_'
'diagnosed_'
'dancer_'
'chư'
'block'
'Tusk_'
'Poo'
'Milan_'
'Lou'
'Ira'
'BL'
'yell_'
'visitors_'
'tò'
'tension_'
'telep'
'tasks_'
'successfully_'
'stubborn_'
'rian_'
'ps'
'pat'
'pass'
'obey_'
'niece_'
'ngứa_'
'mmm_'
'leap_'
'lb'
'jam_'
'iment'
'fundamentally_'
'exp'
'emi'
'ecosystem_'
'blanket_'
'administration_'
'Thanksgiving_'
'Silicon_'
'Ric'
'Rain'
'Phố_'
'Odd'
'Metatron_'
'Guan'
'Gil'
'Cú_'
'CLA'
'CK'
'Bli'
'Ar'
'Amazing_'
'--?_'
'đệt_'
'Đan_'
'ure'
'tụng_'
'tter_'
'thản_'
'tche'
'stru'
'strikes_'
'rá'
'rine_'
'preserve_'
'polite_'
'ngạt_'
'neo'
'nda_'
'motor'
'motive_'
'luc'
'lic_'
'isi'
'intentions_'
'ghi'
'gent_'
'eye'
'ert'
'envelope_'
'ene'
'emperor_'
'dou'
'cham'
'bucket_'
'blows_'
'ast_'
'activated_'
'Thor'
'Tal'
'Rea'
'Prize_'
'Post_'
'Miss'
'Jai_'
'Flynn_'
'Dri'
'94_'
'... - ..._'
'♪ ♪ _'
'wandering_'
'transmission_'
'stabbed_'
'ssa'
'rum'
'ris_'
'recovered_'
'rb'
'quấn_'
'poet_'
'ois'
'min_'
'marrying_'
'lle'
'let'
'iet'
'heir_'
'fist_'
'equality_'
'come'
'cla'
'champ_'
'bus'
'breasts_'
'accomplished_'
'Yi'
'Ven'
'Stri'
'Sheldon_'
'Niki_'
'Negative_'
'Miguel_'
'Kent_'
'Gone_'
'Free'
'Cin'
'AP'
'%, _'
'ỳ_'
'ứa_'
'ven'
'travels_'
'tour'
'tim'
'suppress'
'rubber_'
'registered_'
'rega'
'rays_'
'nke'
'mode_'
'mer'
'leather_'
'ket'
'improved_'
'ige'
'grandma_'
'gambling_'
'dai'
'cons'
'complain_'
'chói_'
'cher'
'celebrating_'
'cac'
'bull'
'branch_'
'adjust'
'Wing_'
'WO'
'Roland_'
'Rita_'
'Poe_'
'OU'
'Niềm_'
'Nevada_'
'Nes'
'Lư'
'LL'
'Job_'
'JJ_'
'Hus'
'Hugh_'
'History_'
'Higgs_'
'Herbie_'
'Gi_'
'Frost_'
'DA_'
'Cree'
'Cau'
'1970_'
'ỗi_'
'thây_'
'stack_'
'reno'
'render'
'pursue_'
'promotion_'
'nic_'
'liếm_'
'lighting_'
'crops_'
'cle'
'chốc_'
'bonds_'
'behaviors_'
'aries_'
'Seri'
'Run'
'Pig'
'Peru_'
'Mơ_'
'Maha'
'Linderman_'
'Liberty_'
'Defense_'
': (_'
'76_'
'... .. _'
'Ò'
'Ì_'
'waking_'
'tụt_'
'tràng_'
'torn_'
'sưng_'
'rre'
'rhythm_'
'rating_'
'rap'
'patent_'
'nies_'
'mini_'
'investigating_'
'ify_'
'hức_'
'hù_'
'hòng_'
'handled_'
'execution_'
'exa'
'dose_'
'deci'
'cún_'
'cù'
'conduct_'
'bum_'
'bearing_'
'arrows_'
'arrival_'
'ake_'
'Zach_'
'Tín_'
'Truth_'
'Tit'
'Shawn_'
'Sahara_'
'Safe_'
'Rời_'
'Ri'
'RU'
'Plan'
'Ind'
'Goodnight_'
'Fer'
'Cli'
'Chấp_'
'Chop'
'Ass_'
'òn_'
'zoom_'
'trừu_'
'superior_'
'shelf_'
'puppy_'
'practices_'
'performed_'
'pee'
'overs'
'nồi_'
'mons'
'lượm_'
'láng_'
'lads_'
'không'
'khép_'
'khiên_'
'ket_'
'jewelry_'
'extend_'
'ei_'
'cồn_'
'costume_'
'contrast_'
'bati'
'alm'
'aci'
'aa_'
'Spin'
'Repeat_'
'Py'
'Medic'
'MA_'
'Jac'
'Gandhi_'
'Costa_'
'Cleveland_'
'COM'
'Brenda_'
'67_'
'." (_'
'điềm_'
'Đu'
'Điê_'
'~ _'
'zoo_'
'viral_'
'tid'
'surprises_'
'spar'
'rolled_'
'rei'
'rec'
'paths_'
'nhấp_'
'mon'
'mistress_'
'mice_'
'masters_'
'leverage_'
'improvement_'
'ego_'
'edly_'
'burger_'
'boarding_'
'bare_'
'ards_'
'ara'
'ama'
'ala_'
'after'
'Supreme_'
'Stre'
'Straight_'
'Sparrow_'
'Pearl_'
'LED_'
'Kiến_'
'Jacques_'
'Hir'
'Dona'
'Boo_'
'Academy_'
'ARE_'
'35'
'ảy_'
'ơng_'
'õ'
'ues_'
'trac'
'repe'
'promising_'
'ntly_'
'nag'
'mú'
'mean'
'involve_'
'human'
'gy'
'founded_'
'distracted_'
'dishes_'
'compromised_'
'blocked_'
'avo'
'ani'
'Wei_'
'Sophia_'
'Saudi_'
'Roosevelt_'
'Robot_'
'Place_'
'Others_'
'Gui'
'Finish_'
'Despite_'
'Cohen_'
'Cardinal_'
'Brendan_'
' :_'
'àm_'
'Ó'
'theirs_'
'tanks_'
'swords_'
'rig_'
'reo_'
'policies_'
'opposed_'
'oli'
'môt_'
'mortality_'
'lm_'
'ified_'
'hills_'
'heavens_'
'follows_'
'fis'
'dee_'
'civilian_'
'chướng_'
'cheated_'
'bul'
'blow'
'batt'
'ag_'
'WITH_'
'Roo'
'Roche'
'Piper_'
'Pine'
'Mission_'
'Metro_'
'Luis_'
'Federal_'
'Cup_'
'Cage_'
'Bolton_'
'Bi_'
'Benny_'
', (_'
'séc_'
'strip'
'spinning_'
'soccer_'
'rear_'
'patrol_'
'og'
'nte'
'necklace_'
'measured_'
'margin'
'luân_'
'lings_'
'hacked_'
'gang'
'frog_'
'forbidden_'
'endless_'
'cliff_'
'chùi_'
'caring_'
'call'
'attacking_'
'aspects_'
'Van'
'Tháp_'
'Sokka_'
'Sire_'
'Shee'
'Pink'
'PHOEBE_'
'Nin'
'Cou'
'Carri'
'Bastard_'
'@_'
'93_'
'đểu_'
'witnessed_'
'wears_'
'vir'
'tele'
'sweat'
'sem'
'salary_'
'rivers_'
'rim'
'quáng_'
'prayers_'
'pirate_'
'organize_'
'op'
'nă_'
'mans'
'mail'
'huệ_'
'extract_'
'dẫm_'
'dense_'
'cups_'
'covers_'
'contribute_'
'carries_'
'blood'
'beliefs_'
'announced_'
'Wat'
'Thập_'
'Thí_'
'TE_'
'Robinson_'
'Pan_'
'Oklahoma_'
'Nob'
'Nature_'
'Milli'
'Lựa_'
'Indonesia_'
'Imp'
'Hatt'
'GO_'
'Floyd_'
'Berkeley_'
'Behind_'
'Arti'
'80s_'
'68_'
'ố'
'đốn_'
'urs_'
'talented_'
'stre'
'sep'
'represented_'
'ren_'
'refugee_'
'pro'
'paw'
'organism_'
'ora_'
'offices_'
'nt'
'ngu'
'newspapers_'
'migra'
'mani'
'locate_'
'instinct_'
'hẻm_'
'fie'
'erly_'
'county_'
'carpet_'
'camp'
'asse'
'ani_'
'alized_'
'Tim'
'Shan'
'Shame_'
'Sanchez_'
'SO_'
'Randall_'
'Pos'
'Pop'
'Peeta_'
'Nemo_'
'Kang_'
'Forty_'
'Correct_'
'Bureau_'
'Bird_'
'Ans'
'ũ_'
'êng_'
' '
'xay_'
'uring_'
'tide_'
'thee_'
'swallow_'
'remained_'
'plague_'
'overall_'
'mọt_'
'monk_'
'lousy_'
'king'
'hormones_'
'herd_'
'griev'
'feature_'
'celebration_'
'bicycle_'
'bb'
'barrel_'
'arguments_'
'Research_'
'Mans'
'Lac'
'Kor'
'Khal'
'Jew_'
'Hayley_'
'Gun'
'Dela'
'Building_'
'Alex'
'.. '
', $_'
'*'
' ... '
'đắng_'
'xắn_'
'technological_'
'sủa_'
'scrape'
'refer_'
'reb'
'rank_'
'oxytocin_'
'opo'
'nl'
'ngó_'
'need'
'mách_'
'mem'
'lit'
'life'
'lens_'
'ht_'
'herb'
'helpless_'
'ha'
'fil'
'eme'
'eliminate_'
'dh'
'contrary_'
'cargo_'
'bênh_'
'bog'
'beam_'
'awa_'
'aspect_'
'Yours_'
'Trương_'
'Temple_'
'Shar'
'Oz'
'OC'
'Nhẹ_'
'Mill'
'Lib'
'Kol'
'Jor'
'Ii'
'Hoffman_'
'Est'
'Delhi_'
'Cứt_'
'Cụ_'
'Command_'
'Chống_'
'Chin'
'Camera_'
'70'
'00'
'- ♪ _'
'ốn_'
'ọt_'
'Đếm_'
'yl'
'vo'
'uncon'
'tunnels_'
'tsk'
'tails_'
'switched_'
'southern_'
'sixth_'
'rode_'
'purple_'
'ovi'
'ost_'
'org_'
'opponent_'
'nut'
'nicely_'
'nhá'
'mie_'
'magnificent_'
'lookin_'
'lap'
'invasion_'
'hormone_'
'gum_'
'fa_'
'embassy_'
'eful_'
'drama_'
'couples_'
'cancel_'
'bes'
'arch'
'Yas'
'Willy_'
'Wild_'
'Side_'
'Ronald_'
'Phillips_'
'NT_'
'McK'
'Marg'
'Jos'
'Ger'
'Gene_'
'Geller_'
'Fal'
'Elsa_'
'Die_'
'Connie_'
'Between_'
'Ash_'
'Anton_'
'78_'
'Ộ'
'đả_'
'ultra'
'trade'
'tial_'
'thus_'
'ther_'
'tas_'
'shining_'
'scal'
'rescued_'
'reckon_'
'qi'
'ngủi_'
'mainly_'
'ix_'
'indicate_'
'hostile_'
'gloves_'
'democratic_'
'daylight_'
'column_'
'clues_'
'appeal_'
'Whit'
'Wan'
'Viktor_'
'Val_'
'Sung_'
'Nei'
'Motherfucker_'
'Kat'
'Chiều_'
'Brock_'
'Arch'
'AK_'
'? " _'
'whistle_'
'whatsoever_'
'vòm_'
'vy_'
'votes_'
'vic'
'vi'
'teenager_'
'sf'
'rf'
'olds_'
'nk'
'laying_'
'hydro'
'entrepreneurs_'
'det'
'cti'
'chef_'
'bỉ_'
'burnt_'
'bud_'
'boundaries_'
'ays_'
'agi'
'Xi'
'Tall'
'Rô_'
'Mông_'
'Merri'
'Lượng_'
'Leg'
'Kurt_'
'Judith_'
'Clayton_'
'Caleb_'
'Ass'
'ư'
'Đèn_'
'wreck_'
'worn_'
'shotgun_'
'recon'
'rebo'
'nst'
'ngá'
'nghếch_'
'locations_'
'ladder_'
'kie_'
'inequality_'
'hunters_'
'hooked_'
'gô_'
'eta'
'ead_'
'consequence_'
'collaboration_'
'charm_'
'cca'
'bel_'
'barn_'
'Visi'
'Unbelievable_'
'Sti'
'Sky_'
'Seo'
'Rossi_'
'Proctor_'
'Pascal_'
'OVER_'
'OP'
'Loo'
'Land_'
'Gab'
'Dữ_'
'Coca_'
'Child_'
'CHI'
'Brit'
'Arabic_'
'AD'
'ty'
'sten'
'sau'
'origin_'
'oph'
'och'
'nc'
'native_'
'misery_'
'luxury_'
'ln'
'invested_'
'gie_'
'ern'
'elite_'
'compromise_'
'bber'
'barrier_'
'ational_'
'assassin_'
'WE'
'Tessa_'
'Rich'
'Nóng_'
'Nation_'
'Kỵ_'
'Kau'
'Junior_'
'Jr_'
'Jody_'
'Hayes_'
'Harper_'
'Fat_'
'Falls_'
'EC'
'Diggle_'
'Cent'
'Bjorn_'
'?'
'259_'
'2050_'
'vul'
'treatments_'
'tori'
'stink_'
'squi'
'rụng_'
'pen'
'mạ_'
'laughter_'
'inspiring_'
'innovative_'
'eter'
'detect'
'dal'
'contest_'
'consol'
'compr'
'com'
'cies_'
'bomb'
'bloods'
'bargain_'
'amin'
'affairs_'
'Virgil_'
'STA'
'Play'
'Petrov_'
'Ngôn_'
'Kap'
'Div'
'DY_'
'Chí_'
'2002_'
'110_'
'06_'
'-..._'
'‭_'
'ắm_'
'wan_'
'unp'
'union_'
'tứ_'
'sighs_'
'rang_'
'predicted_'
'moron_'
'kr'
'icia'
'healthcare_'
'explosives_'
'ening_'
'designs_'
'dash'
'but'
'bitter_'
'attracted_'
'allies_'
'airb'
'Zan'
'Using_'
'Turkey_'
'Sec'
'Pou'
'McC'
'Lớp_'
'Lie'
'Laz'
'Koran_'
'Katherine_'
'Jeffrey_'
'Jean'
'Hopefully_'
'Gray_'
'Emer'
'Coke_'
'Đoàn_'
'turkey_'
'trội_'
'strate'
'steam_'
'squir'
'shops_'
'rình_'
'ram'
'professionals_'
'phan'
'papa_'
'nearest_'
'mee'
'legitimate_'
'laughed_'
'ield_'
'handful_'
'gắt_'
'ground'
'gratitude_'
'generated_'
'erm'
'engaging_'
'emit'
'disturbing_'
'crystal_'
'cran'
'chéo_'
'bic'
'alarm'
'ago'
'Voice_'
'SH'
'Russo_'
'Pick'
'Pass'
'Nấ'
'Ner'
'Mũi_'
'Miriam_'
'Link_'
'Lee'
'Landing_'
'Kỹ_'
'Hard'
'Exc'
'Come'
'Bou'
'BM'
'Ah'
'Age_'
'ứ_'
'ĩnh_'
'thốt_'
'suburb'
'strongest_'
'spectacular_'
'sci'
'rica'
'resent'
'regard_'
'raid_'
'parked_'
'paradise_'
'originally_'
'origami_'
'menta'
'mach'
'lazy_'
'keeper_'
'injuries_'
'giời_'
'coordinates_'
'cooked_'
'connecting_'
'automatically_'
'armies_'
'alg'
'academic_'
'aba'
'Vietnamese_'
'Stevie_'
'Somehow_'
'Sni'
'Report_'
'Melissa_'
'Long'
'Interpol_'
'Eye_'
'Case_'
'Cap_'
'Cana'
'Buy_'
'Beijing_'
'After'
'õi_'
'unre'
'unfair_'
'tào_'
'tude_'
'tically_'
'spill_'
'shout_'
'sack_'
'reflection_'
'recruit'
'pend'
'odo'
'nger_'
'mourn'
'mas_'
'mart'
'lít_'
'ju_'
'journal_'
'illa'
'fusion_'
'fifty_'
'cracked_'
'bear'
'ale_'
'ado_'
'adding_'
'Wis'
'Wednesday_'
'Venus_'
'RR'
'RIGHT_'
'Pittsburgh_'
'Oak'
'IP_'
'Fur'
'February_'
'Denise_'
'Chaney_'
'Byr'
'Any'
'34'
'ỵ_'
'Ế'
'ẻo_'
'úc_'
'và'
'tende'
'surrounding_'
'ston_'
'spotted_'
'server_'
'scores_'
'rus'
'raph'
'psycho_'
'path'
'paranoid_'
'nếp_'
'nik'
'ngụy_'
'messy_'
'lìn_'
'lob'
'instantly_'
'homicide_'
'foster_'
'formal_'
'flowing_'
'elle_'
'efficiency_'
'donor_'
'convincing_'
'cia'
'agencies_'
'accomplish_'
'Teacher_'
'Suppose_'
'Plu'
'Palace_'
'Pai'
'OS'
'Mẫu_'
'Mom'
'McG'
'Lak'
'Jun'
'Hỡi_'
'Gla'
'Foundation_'
'Flight_'
'Coo'
'Chuyê_'
'CHANDLER_'
'Broadway_'
'Ambassador_'
'32'
'thuâ_'
'tau'
'tain_'
'steak_'
'spray_'
'spinal_'
'rio'
'reg'
'port'
'phe'
'naive_'
'lic'
'jan'
'ire'
'illi'
'grass'
'forcing_'
'fabric_'
'exploration_'
'establish_'
'disa'
'cker_'
'cast'
'avi'
'arriving_'
'allo'
'Zealand_'
'THERE_'
'Quận_'
'Ori'
'Nico_'
'Mis'
'Lửa_'
'Ling_'
'Kah'
'Hit'
'Carly_'
'Allow_'
'wires_'
'vọt_'
'trâu_'
'sses_'
'squa'
'socio'
'shitty_'
'sap'
'rob'
'rer'
'repu'
'rail'
'ong'
'miên_'
'meme'
'medal_'
'mbi'
'lẹ_'
'leg'
'imi'
'gẫ'
'gna'
'gained_'
'dốt_'
'consumer_'
'congratulations_'
'Yama'
'Tuco_'
'Self_'
'Power'
'Mut'
'Lab_'
'LS'
'Jae_'
'Bolt_'
'Beau_'
'Andr'
'ượ'
'ü'
'ém_'
'voting_'
'trading_'
'teenagers_'
'tablet_'
'sworn_'
'satellites_'
'rie_'
'retro'
'resu'
'reduced_'
'pant'
'outcomes_'
'oli_'
'new'
'nal'
'misunderstanding_'
'lảng_'
'lamp_'
'ky'
'kov_'
'ind'
'hra'
'hiên_'
'grave'
'funded_'
'forgetting_'
'entit'
'declared_'
'decides_'
'correctly_'
'colored_'
'bail_'
'ambi'
'actors_'
'Voi'
'Tiếc_'
'South'
'Sev'
'SOME'
'Revolution_'
'Price_'
'Mụ_'
'Moving_'
'Micky_'
'Mam'
'Lad'
'Killing_'
'Khủng_'
'Khẩu_'
'Gill'
'Fra'
'Fair'
'Creek_'
'Bingo_'
'Batt'
'Agr'
'1999_'
'đẫm_'
'xiếc_'
'worthless_'
'wad'
'vụng_'
'unb'
'tle'
'tha'
'tapes_'
'slavery_'
'sire_'
'rebuild_'
'qualities_'
'pistol_'
'penalty_'
'panel_'
'mẹo_'
'mber'
'lốp_'
'lẽo_'
'lanh_'
'hit'
'gesture_'
'focusing_'
'flood_'
'eless_'
'editor_'
'cỡi_'
'cóng_'
'ci_'
'chap'
'boot_'
'attract_'
'approve_'
'amo'
'Vãi_'
'Stro'
'Pat'
'McClane_'
'Jared_'
'JO'
'Ins'
'Il'
'Hills_'
'Gerry_'
'Fall'
'Cash_'
'CAN_'
'Bang'
'. '_'
'ươ_'
'ươ'
'ìu_'
'visi'
'vegetables_'
'treason_'
'therapist_'
'teri'
'sized_'
'ranch_'
'pil'
'pi_'
'ot'
'maximum_'
'manual_'
'lot'
'lobby_'
'limb_'
'lect'
'largely_'
'horse'
'fuels_'
'filling_'
'count'
'contained_'
'chiêm_'
'batteries_'
'balloon_'
'Yin'
'Wall'
'Vinh_'
'Vicky_'
'Trốn_'
'Tranh_'
'Sna'
'Seoul_'
'Sara'
'Roll_'
'OUT_'
'Mist'
'MS_'
'MOR'
'LING_'
'Iowa_'
'Hunt'
'HU'
'Gods_'
'Giấc_'
'Aristotle_'
'Anita_'
'Abigail_'
'26'
'ếp_'
'Đốt_'
'Ü_'
'wig_'
'testify_'
'suggestion_'
'stain'
'rted_'
'romance_'
'rg_'
'ngo_'
'input_'
'há_'
'household_'
'gập_'
'favour_'
'cửu_'
'brighte'
'bothering_'
'ari_'
'amy'
'alongside_'
'Xử_'
'Wind'
'Whitney_'
'Thể_'
'Scan'
'Russ_'
'Men'
'Mani'
'Lynch_'
'Kung_'
'Khu'
'Katara_'
'Jasmine_'
'Gavin_'
'Chăm_'
'Chester_'
'Cham'
'Bull'
'Biệt_'
'Biên_'
'Bas'
'Antarctica_'
'unf'
'towel_'
'tee'
'synthetic_'
'short'
'radi'
'printed_'
'physician_'
'năn_'
'mút_'
'lame_'
'khốc_'
'gôn_'
'grip_'
'fru'
'extinct_'
'esta'
'ect'
'dramatically_'
'disabled_'
'dera'
'density_'
'day'
'compose'
'bổn_'
'Winchester_'
'Tech_'
'Sweetheart_'
'Saw_'
'Rec'
'RV_'
'Los'
'Kane_'
'Huyết_'
'Gre'
'Gió_'
'Gaul'
'Fried'
'Bow'
'AG'
'ội_'
'vers'
'tournament_'
'toe_'
'thrilled_'
'testimony_'
'sham'
'row'
'reservation_'
'rejected_'
'prol'
'pirates_'
'ner'
'meth_'
'makeup_'
'immortal_'
'handling_'
'gót_'
'greenhouse_'
'flames_'
'enable_'
'dated_'
'buck_'
'breed_'
'accidents_'
'Trại_'
'TER_'
'Sắt_'
'Spirit_'
'Lap'
'Karo'
'Gord'
'Eagle_'
'Deacon_'
'Buff'
'7887_'
'..'
' -- "_'
'ẽ_'
'viol'
'verse_'
'thic'
'stepping_'
'spin'
'rse'
'rg'
'rator_'
'protest_'
'pli'
'omi'
'morphine_'
'moral'
'mit_'
'lasting_'
'inspire_'
'insisted_'
'ington_'
'hươu_'
'hem_'
'hair'
'guar'
'fixing_'
'females_'
'expose_'
'diving_'
'differ'
'desperately_'
'convenient_'
'compa'
'backyard_'
'audio_'
'advertising_'
'Willie_'
'Usually_'
'USD_'
'Sc'
'Sau'
'Row'
'Rosa_'
'Roa'
'Rather_'
'Linc_'
'Lai'
'KA'
'Huy_'
'Hea'
'Gina_'
'GH'
'Fin'
'Butler_'
'Bry'
'Adams_'
'63_'
'ữ_'
'ọng_'
'ại_'
'Đ_'
'zu'
'yg'
'wee_'
'wealthy_'
'vét_'
'usi'
'tis'
'team'
'tas'
'sing'
'seas_'
'rót_'
'rubb'
'quạt_'
'purposes_'
'prov'
'polar_'
'plum'
'pause_'
'observation_'
'mị'
'mot'
'logist_'
'las'
'imo'
'horror_'
'gles_'
'ede'
'dug_'
'drown_'
'comfort'
'chicks_'
'ae_'
'accidentally_'
'ab'
'Xì_'
'Tiffany_'
'THEY_'
'Pha'
'Part_'
'Original_'
'Mik'
'Mali'
'Liv'
'Johann'
'Jenkins_'
'Gate_'
'Gat'
'Fol'
'Emb'
'Cut'
'Cheon_'
'62_'
'42'
'Ớ'
'đao_'
'zan'
'widow_'
'wall'
'toả_'
'supporting_'
'stored_'
'soak'
'sha_'
'rủ_'
'ral'
'plo'
'pillow_'
'parallel_'
'nsh'
'lighter_'
'label_'
'jud'
'inh'
'dere'
'delusion'
'dd_'
'contacts_'
'clam'
'channels_'
'appe'
'app'
'alin'
'acknowledge_'
'Tia_'
'Spark'
'Shir'
'Rogers_'
'Rob'
'Pierce_'
'Nations_'
'Kas'
'Imperial_'
'Gun_'
'Day'
'18'
'ừng_'
'ơc_'
'yri'
'worship_'
'vagina_'
'twin_'
'tric'
'supper_'
'soli'
'sober_'
'shit'
'scou'
'rạch_'
'remembers_'
'relate_'
'ref'
'oy'
'norm'
'nom'
'nets_'
'mous'
'melt_'
'lip'
'ignored_'
'headache_'
'got'
'floors_'
'don'
'dine_'
'cừ_'
'că_'
'collapsed_'
'came'
'Totally_'
'Snart_'
'Kiri'
'Hide_'
'Foster_'
'Date_'
'Congressman_'
'Bet_'
'249_'
'ựa_'
'đấng_'
'zes_'
'wai'
'võng_'
'sue_'
'substance_'
'skinny_'
'sever'
'road'
'rese'
'repair'
'put'
'nhọc_'
'nghẽn_'
'mài_'
'mpe'
'lụa_'
'lút_'
'kèo_'
'itions_'
'ili'
'graduated_'
'gir'
'eys_'
'dá'
'dental_'
'consume_'
'claimed_'
'christ'
'attempted_'
'assured_'
'Twelve_'
'Trăng_'
'Sweden_'
'Suz'
'Show'
'Release_'
'Raise_'
'Pis'
'ND_'
'IA'
'Godfrey_'
'Chặn_'
'Cassie_'
'Camp_'
'Brandon_'
'Aba'
'AF'
'—_'
'virtually_'
'use'
'unl'
'turn'
'tif'
'tick'
'sấu_'
'suspected_'
'rotten_'
'responding_'
'protective_'
'mộc_'
'menu_'
'luâ_'
'ien'
'hut_'
'horizon_'
'hallway_'
'gật_'
'gro'
'good'
'fascinated_'
'facilities_'
'ech'
'crawl_'
'boong_'
'basket_'
'ay'
'assist_'
'Works_'
'Winter_'
'Tang_'
'Sixt'
'Sem'
'ST'
'SP'
'Queens_'
'Oi_'
'Muội_'
'Lloyd_'
'Indi'
'Hạnh_'
'Hermione_'
'Gra'
'Gala'
'Forever_'
'Dul'
'Cost'
'Boa'
'Babi'
'ởng_'
'wrist_'
'worm_'
'wise'
'vest'
'vali_'
'vag'
'vacuum_'
'tụy_'
'trụi_'
'tricky_'
'tot'
'sou'
'rub_'
'perf'
'peace'
'participants_'
'mutual_'
'moni'
'mob_'
'kidnapping_'
'iva'
'gáy_'
'flows_'
'fabulous_'
'exploring_'
'eer'
'demonstrate_'
'clubs_'
'biếng_'
'Vá'
'Una'
'Rel'
'Rama'
'Màn_'
'Mori'
'Mamm'
'Lot'
'Krypton_'
'Isabella_'
'Heathcliff_'
'Heard_'
'Greece_'
'Ep'
'ET'
'Dream_'
'Course_'
'Corps_'
'Chuckles_'
'Benji_'
'Bene'
'Art'
'7881_'
'61_'
'ục_'
'yến_'
'xẻ_'
'watch'
'uý_'
'uta'
'um'
'thuyên_'
'sul'
'scheduled_'
'sc'
'rumor_'
'pper_'
'pos_'
'pad_'
'orn'
'nym'
'needing_'
'neat_'
'motherfuckers_'
'mort'
'mic'
'lieutenant_'
'ingredients_'
'historic_'
'gall'
'gal'
'eth'
'estimate_'
'elections_'
'devo'
'detailed_'
'consistent_'
'component_'
'cel'
'cant'
'basketball_'
'acquired_'
'Uy_'
'Res'
'Pon'
'Pizza_'
'Palestine_'
'Jam'
'Gunn'
'Guards_'
'Gram'
'Fortunately_'
'Dot'
'Chịu_'
'Butch_'
'Argentina_'
'233_'
'wrong'
'uf'
'syndrome_'
'stream'
'sly_'
'shrink_'
'shou'
'respected_'
'proc'
'prior_'
'odi'
'nín_'
'nucle'
'ken'
'inhabit'
'ime_'
'ier'
'honesty_'
'gni'
'fingerprints_'
'entr'
'ela_'
'dar'
'currency_'
'comic_'
'cheer_'
'bón_'
'bra_'
'bond'
'boards_'
'bizarre_'
'audition_'
'aka_'
'admitted_'
'Yang_'
'Smart_'
'Pharaoh_'
'Nazi_'
'NH_'
'NE_'
'Murdock_'
'Làn'
'Kho'
'Kel'
'Juliet_'
'Joc'
'Jai'
'Gosh_'
'Disc'
'Cora_'
'COU'
'Ố'
'voted_'
'supported_'
'rapid_'
'quer'
'pulls_'
'pressing_'
'populations_'
'pick'
'oe'
'nap_'
'locker_'
'lean_'
'layers_'
'ict'
'hik'
'grandchildren_'
'freely_'
'ext'
'ener'
'economies_'
'diều_'
'div'
'die'
'cyber'
'cotton_'
'corp'
'comme'
'assi'
'advise_'
'access'
'Thor_'
'Nô_'
'Nov'
'Nhẫn_'
'Mozart_'
'MINIONESE_'
'Hài_'
'Ell'
'Cướp_'
'Bro_'
'Brenn'
'Boyle_'
'Adrian_'
'vu'
'update_'
'unk'
'twi'
'trend_'
'tack'
'rong_'
'resolve_'
'requested_'
'reception_'
'reaches_'
'quantit'
'pleas'
'orr'
'mind'
'ipe'
'iness_'
'iko_'
'heavily_'
'fridge_'
'filed_'
'emo'
'dệt_'
'drones_'
'disappoint_'
'cle_'
'brutal_'
'blocking_'
'biopsy_'
'axis_'
'astronom'
'arrangements_'
'approximately_'
'ake'
'advis'
'Zen'
'Tiệc_'
'Thung_'
'Tango_'
'Sư'
'Social_'
'Romans_'
'Ref'
'Pl'
'Paula_'
'Meg_'
'Lỡ_'
'Luc_'
'Light'
'Levi'
'Kn'
'Kendra_'
'Hư'
'Gam'
'Fon'
'Conf'
'Chuyên_'
'Chile_'
'Blow_'
'Bennett_'
'Alec_'
'201'
'187'
'ợn_'
'áy_'
'wet'
'watches_'
'virtu'
'usa'
'troubles_'
'suite_'
'succeeded_'
'sperm_'
'solo_'
'slap_'
'selected_'
'recip'
'portal_'
'obi'
'nge'
'missions_'
'hips_'
'fooled_'
'flaw'
'expertise_'
'dz'
'download_'
'dition'
'distributed_'
'delicate_'
'defending_'
'crushed_'
'counsel_'
'confi'
'bush_'
'brid'
'ate'
'ac_'
'Wish_'
'Therefore_'
'Teri_'
'Tab'
'Sort_'
'Pun'
'Nick'
'Ngăn_'
'Mercedes_'
'Lyle_'
'Lyla_'
'Lara_'
'JUST_'
'Heads_'
'Forg'
'Everest_'
'Doyle_'
'Dom'
'Bea'
'Barn'
'Archer_'
'"'_'
'yon'
'xé'
'weigh_'
'uil'
'tic'
'sweep_'
'stin'
'shells_'
'ráng_'
'ramp'
'occupied_'
'nto'
'nickname_'
'nf'
'monitoring_'
'khoát_'
'ison_'
'intent_'
'honeymoon_'
'graphic_'
'forming_'
'fatal_'
'fashioned_'
'erase_'
'announce_'
'Tuổi_'
'Ther'
'Stevens_'
'Steady_'
'Stacy_'
'Soc'
'Scully_'
'Scr'
'Scho'
'Ov'
'Gấu_'
'Fourth_'
'Fang_'
'Dig_'
'Del_'
'70s_'
'66_'
'....._'
'ả'
'đệch_'
'ö'
'õ_'
'vắt_'
'tax'
'speakers_'
'soo_'
'sleep'
'signing_'
'shad'
'sey_'
'scum_'
'rebels_'
'produces_'
'oxi'
'oth'
'measuring_'
'mae'
'lựu_'
'lp'
'knocking_'
'ima_'
'ih'
'ign_'
'icon'
'hir'
'gently_'
'functional_'
'found'
'enta'
'deepest_'
'cked_'
'cellular_'
'bum'
'battles_'
'assign'
'ale'
'Yun_'
'UR'
'SA_'
'Pea'
'NB'
'McL'
'Khai_'
'Jim'
'IQ_'
'Hamilton_'
'Ham'
'Hallelujah_'
'Castiel_'
'Carn'
'CLB_'
'Bonn'
'Bark'
'Ave'
'Alp'
'185'
'ũ'
'ùm_'
'sư'
'summ'
'stages_'
'ption_'
'pain'
'ops_'
'nỉ_'
'nòng_'
'náu_'
'kin'
'inal_'
'gger'
'fores'
'external_'
'eng'
'dopamine_'
'dealt_'
'cunt_'
'crop_'
'cousins_'
'corrupt_'
'collar_'
'bẩy_'
'bie'
'YA'
'Winston_'
'Ter'
'Planet_'
'Ki_'
'Home'
'Hiển_'
'Fab'
'Davi'
'Cú'
'Confe'
'Cob'
'CAR'
'Block_'
'Aurora_'
'Act'
'Ach'
'", "_'
' ...._'
'ũng_'
'wre'
'trô_'
'soc'
'siết_'
'sie_'
'sickness_'
'samurai_'
'relieved_'
'quot'
'psycho'
'psychic_'
'picks_'
'ook_'
'motivation_'
'milli'
'microscope_'
'mel_'
'med'
'lde'
'jug'
'incu'
'ignorance_'
'hhh_'
'here'
'flap'
'cookie_'
'clown_'
'chót_'
'bbe'
'amuse'
'ambitious_'
'abstract_'
'abs'
'Twi'
'Thề_'
'Safe'
'Outside_'
'KNOCKING_'
'Intr'
'Hazel_'
'Floki_'
'FC'
'Dog'
'Die'
'Dexter_'
'Cond'
'Bern'
'Are'
'45'
'189'
'... -_'
' = _'
'ð_'
'Ã'
'whereas_'
'vity_'
'uke'
'slight_'
'sala'
'rãnh_'
'rises_'
'residents_'
'pregnancy_'
'oma'
'nua'
'ngl'
'nch'
'motivated_'
'liquor_'
'lep'
'knock'
'implications_'
'fox_'
'flee'
'ek'
'diverse_'
'cup'
'cob'
'clay_'
'chopper_'
'cane_'
'aver'
'ardi'
'Tami'
'Sweetie_'
'Shrek_'
'Rex_'
'Maurice_'
'Marc'
'Lizzie_'
'Kru'
'Ie'
'High'
'Diệ'
'District_'
'Cấm_'
'Canadian_'
'ữa_'
'́'
'đun_'
'yle_'
'wu'
'wished_'
'white'
'vibrat'
'tubes_'
'tti_'
'tribes_'
'tho_'
'tackle_'
'suitcase_'
'stal'
'socks_'
'roof'
'pose_'
'photography_'
'oid_'
'nor'
'night'
'nhằn_'
'nghi'
'minded_'
'lined_'
'jar_'
'hatred_'
'harsh_'
'hai'
'fun'
'ethe'
'dom_'
'chemo'
'cartoon_'
'bit'
'bells_'
'bass_'
'bas'
'Rusty_'
'Reverend_'
'Phép_'
'Ph_'
'PLAYING_'
'Ngọn_'
'Loki_'
'Log'
'Loan_'
'Hoá_'
'HERE_'
'Gore_'
'Gabe_'
'Esp'
'Ea'
'Doug'
'Cape_'
'Alone_'
'Ace_'
'ướp_'
'xáo_'
'twe'
'tion'
'success'
'sentences_'
'raft_'
'prost'
'project'
'place'
'neighbour'
'nap'
'met'
'marsh'
'lá'
'lifted_'
'ist'
'instincts_'
'impro'
'imaging_'
'ils_'
'germ'
'framework_'
'embedded_'
'door'
'dominant_'
'desires_'
'dependent_'
'dale_'
'conventional_'
'coloni'
'class'
'chạp_'
'category_'
'borrowed_'
'awfully_'
'arrives_'
'Zor'
'Wherever_'
'Sulu_'
'Raul_'
'Prom'
'Ming_'
'Mara'
'Lovely_'
'Kitty_'
'Join_'
'Hos'
'Geo'
'Garri'
'Fi_'
'Darhk_'
'Broad'
'Athens_'
'Af'
' ('
'̀..._'
'Đạn_'
'yea'
'xẻo_'
'ug'
'uel'
'sche'
'rìu_'
'pet'
'pes_'
'mir_'
'meals_'
'mac'
'ication_'
'hag'
'góa_'
'executive_'
'elder_'
'educational_'
'diary_'
'chickens_'
'award_'
'ambition_'
'actress_'
'Yankee_'
'Tứ_'
'Mon_'
'Milo_'
'Martinez_'
'Magn'
'Haley_'
'Gut'
'Given_'
'Colin_'
'Claude_'
'Boy'
'Atta'
'1998_'
'ụt_'
'ầ'
'watt_'
'urge_'
'thermo'
'sucked_'
'strategies_'
'sniff'
'sb'
'rne'
'profession_'
'ple_'
'optimistic_'
'nấy_'
'ngõ_'
'nav'
'mắng_'
'lem'
'elle'
'dle'
'chas'
'camps_'
'bath'
'ath_'
'alb'
'Take'
'Sk'
'Sep'
'Sandra_'
'Reggie_'
'Pip'
'Off'
'Mau'
'IBM_'
'Ew_'
'Ever'
'Elle_'
'Eb'
'Dinner_'
'Bert'
'BUT_'
'Avi'
'ATM_'
'1984_'
'̣'
'writers_'
'wicked_'
'tweet_'
'trư_'
'toss_'
'stressed_'
'spo'
'sore_'
'satisfaction_'
'ror'
'rh'
'programming_'
'oms_'
'nu_'
'liberty_'
'kit'
'ites_'
'gien_'
'esti'
'episode_'
'dem'
'convicted_'
'compress'
'cat'
'bú_'
'bles_'
'bea'
'bble_'
'aye_'
'anc'
'] '
'Vladimir_'
'Village_'
'VIN'
'Ul'
'Treat'
'Swe'
'Rừng_'
'Như'
'Nand'
'Muslims_'
'Maryland_'
'Maroni_'
'Marianne_'
'Ji_'
'Idiot_'
'Group_'
'GCPD_'
'Eva'
'Cow'
'Check'
'Charl'
'Brun'
'Blu_'
'Biểu_'
'Babylon_'
'361_'
'07_'
' " -- _'
'ủ'
'whores_'
'thầu_'
'sted_'
'robe_'
'retire_'
'reform_'
'rebel_'
'proves_'
'ngâm_'
'max_'
'mam'
'lom'
'lei'
'interactions_'
'habits_'
'hab'
'foods_'
'ey'
'exploit'
'enth'
'emerge_'
'elderly_'
'difficulty_'
'cop'
'card'
'cH00FFFF_'
'articles_'
'Xương_'
'Tân_'
'Tow'
'Thừa_'
'Terri'
'Swiss_'
'Speed_'
'Sit'
'RIS'
'Poseidon_'
'Polly_'
'Phi'
'Panama_'
'Net'
'Nak'
'Living_'
'Lina_'
'Knight_'
'Grove'
'Grim'
'Genesis_'
'Fury_'
'Dorothy_'
'Def'
'Clou'
'Cersei_'
'Card'
'Bis'
'41'
'ỗng_'
'ịch_'
'vend'
'tỵ_'
'talents_'
'tail'
'stab_'
'sit'
'shipping_'
'shake'
'quent'
'pron'
'phàm_'
'pencil_'
'pard'
'oro'
'omo'
'misc'
'lth'
'lah_'
'knives_'
'involving_'
'iel'
'freaked_'
'era'
'employment_'
'dict'
'dam_'
'complaining_'
'cab'
'bru'
'bio_'
'beds_'
'\u _'
'Wy'
'Uhh_'
'Sparta_'
'Sid'
'Rit'
'Ranger_'
'Peach'
'Mu_'
'Meaning_'
'Jame'
'Islam_'
'Hopkins_'
'Hon'
'Fel'
'Cola_'
'Chicken_'
'Blue'
'Atti'
'60'
'160_'
'wireless_'
'web'
'visitor_'
'vaccines_'
'uno'
'trop'
'thorn'
'ssion'
'sings_'
'rl'
'richer_'
'regardless_'
'promote_'
'owners_'
'outs_'
'ngặt_'
'nes'
'nad'
'mba'
'manners_'
'mammals_'
'lovers_'
'loa'
'lac'
'labs_'
'kon'
'jerk'
'islands_'
'insi'
'inmates_'
'idl'
'glow_'
'geni'
'exo'
'erg'
'elevat'
'eager_'
'dio'
'din'
'cry'
'computing_'
'comments_'
'clearance_'
'brig'
'behavioral_'
'Town_'
'Thuật_'
'Thirteen_'
'Sale'
'SPEAKS_'
'Rẽ_'
'Rus'
'Paige_'
'Nava'
'Mạ'
'Katy'
'Jessie_'
'Impossible_'
'Ha'
'Fle'
'Fantastic_'
'Ethiopia_'
'DM'
'Compl'
'Borg_'
'Arkham_'
' ) _'
'♫ ♫ _'
'ĩa_'
'wick_'
'vá_'
'việt_'
'vera'
'vengeance_'
'twelve_'
'tir'
'temper_'
'stas'
'shred'
'rậm_'
'quẳng_'
'quet_'
'presidential_'
'physicist_'
'pharmac'
'off'
'nại_'
'nhử_'
'nel_'
'masks_'
'marker_'
'lum'
'links_'
'lia'
'kt'
'ive'
'intimate_'
'haw_'
'haunt'
'grow'
'frustrated_'
'etta_'
'demonstration_'
'buttons_'
'brow'
'ange'
'alis'
'VA'
'Unlike_'
'Tucker_'
'Skynet_'
'Rest'
'Nhiệt_'
'Ngựa_'
'Nap'
'Mini'
'LU'
'Kam'
'Jasper_'
'Iceland_'
'GG_'
'Dành_'
'Diet'
'Debs_'
'DAR'
'Boyd_'
'Adi'
'7909_'
'7863_'
'192_'
'007_'
'ìn'
'voca'
'upri'
'ugh_'
'thiền_'
'tet'
'sui'
'strict_'
'spr'
'slut_'
'scope_'
'prim'
'poisoning_'
'phớt_'
'pate'
'orm'
'oi_'
'nhãi_'
'mop'
'lers_'
'hub'
'ega'
'ebo'
'eba'
'diabetes_'
'dent'
'crea'
'cont'
'byte'
'ase_'
'allergic_'
'accessible_'
'Wave'
'Vi'
'Trip'
'Thẻ_'
'Short'
'Sarge_'
'Ple'
'Nad'
'Mức_'
'Lương_'
'Lul'
'Hag'
'Gretchen_'
'GRO'
'Denver_'
'Corp_'
'Copenhagen_'
'Cave'
'ổi_'
'Ậ'
'Ä_'
'zones_'
'vigilante_'
'udi'
'uali'
'sed'
'replacement_'
'quicker_'
'pati'
'participat'
'pai'
'oto'
'ote_'
'oat'
'mature_'
'mat_'
'lick_'
'kis'
'iPad_'
'hrer_'
'hm'
'habitat_'
'giàn_'
'fails_'
'ero_'
'equals_'
'eff'
'dimension_'
'dia_'
'cardio'
'brain'
'arr'
'Yorker_'
'Wales_'
'VE'
'Tyrion_'
'Tick'
'Suresh_'
'Sherry_'
'Rollo_'
'RNA_'
'Quit_'
'Pull'
'Ngu_'
'Moriarty_'
'McQueen_'
'Kil'
'Hale_'
'Che_'
'Amb'
'74_'
'09_'
'ễ_'
'Đốc_'
'wal'
'vig'
'veins_'
'tít_'
'triple_'
'teenage_'
'revers'
'quin'
'pus'
'peni'
'outw'
'nhẽ_'
'nails_'
'nai'
'maintain'
'lub'
'leaf_'
'investors_'
'ined_'
'ias_'
'hã'
'hypo'
'hum'
'hel'
'gou'
'gem'
'float_'
'fig'
'cow'
'bled_'
'attribute'
'approached_'
'analyze_'
'alliance_'
'absurd_'
']: _'
'Woo'
'Whiskey_'
'Wel'
'Tian'
'Thẳng_'
'Stil'
'Schu'
'Pere'
'Pacquiao_'
'More'
'Joon_'
'Inve'
'Hủy_'
'Hu_'
'Harr'
'Gái_'
'Edwards_'
'Crystal_'
'Bean'
'100'
'.' _'
'wid'
'unstable_'
'ually_'
'translation_'
'thermal_'
'tense_'
'sá'
'ska'
'rog'
'refine'
'redi'
'reactor_'
'rally_'
'pipes_'
'perse'
'paralyzed_'
'palm_'
'overw'
'ov'
'ort_'
'nth'
'nhịn_'
'nghê_'
'nding_'
'mang'
'magician_'
'league_'
'kat'
'indis'
'igan_'
'haul_'
'handy_'
'green'
'ez'
'erect'
'distinct_'
'discussing_'
'ding'
'cos_'
'clot'
'circus_'
'chimp'
'bolt_'
'barr'
'aco'
'Tơ_'
'Trật_'
'Tristan_'
'Them_'
'Suc'
'SHI'
'Nhện_'
'Missi'
'Lis'
'Latin'
'Jing'
'Harv'
'Gee'
'Fore'
'Fifteen_'
'Dou'
'Chip'
'Bậ'
'...... _'
'đày_'
'ênh_'
'xịn_'
'was'
'twisted_'
'stead'
'shel'
'resistant_'
'primitive_'
'polit'
'orth'
'obe'
'nguyệt_'
'metric_'
'ld'
'iu'
'itch'
'interviews_'
'hử_'
'hydra'
'grams_'
'footprint_'
'finishing_'
'envy_'
'drum_'
'dialogue_'
'dent_'
'cured_'
'corners_'
'confusion_'
'cloth_'
'clock'
'chang_'
'ame_'
'Vân_'
'Sword_'
'Rub'
'Rabbit_'
'Page_'
'Mễ_'
'Lama'
'Hand'
'Halt_'
'Gul'
'Gotcha_'
'Fit'
'Berg'
'...? _'
'ử'
'xỏ_'
'wooden_'
'vs_'
'vale'
'ship'
'shade_'
'servants_'
'rữa_'
'reo'
'radius_'
'pse'
'pher'
'partnership_'
'ngừ_'
'nally_'
'medi'
'lm'
'khan_'
'jack'
'irrelevant_'
'intuitive_'
'impress_'
'im'
'illo'
'hớ'
'hòm_'
'hump'
'grades_'
'fond_'
'feared_'
'eternity_'
'embe'
'elegant_'
'electronics_'
'drawer_'
'distract_'
'disorders_'
'dec'
'cộ_'
'cre'
'convict'
'comple'
'colony_'
'cess'
'bombing_'
'ash'
'ank'
'acti'
'Wood'
'Vượt_'
'Thre'
'Shel'
'Seeing_'
'River'
'Reco'
'Moira_'
'Leah_'
'Ives_'
'Inst'
'Hodor_'
'Gh'
'Garden_'
'Emmett_'
'Cát_'
'Crawford_'
'Cont'
'Bai'
'AR_'
' " '
'Đầy_'
'Ôm_'
'Ô'
'witches_'
'ular'
'tú_'
'texts_'
'targeted_'
'sấm_'
'shouting_'
'scat'
'rou'
'rich'
'reti'
'ongoing_'
'mul'
'motel_'
'mant'
'manipulate_'
'lus'
'lend_'
'insur'
'imper'
'holl'
'hoi_'
'hast'
'hail_'
'grasp_'
'grandparents_'
'filter_'
'examine_'
'entropy_'
'drain_'
'deputy_'
'dealers_'
'curl'
'crank'
'chậu_'
'chill'
'abroad_'
'Yankees_'
'Westeros_'
'Vulcan_'
'Thro'
'Surprise_'
'Sacr'
'Nit'
'Mich'
'MB'
'Heights_'
'Hara'
'Georges_'
'Durant_'
'Deci'
'Cul'
'Corporal_'
'Cara'
'Bingley_'
'BAR_'
'33'
'28'
'̃, _'
'Ác_'
'we'
'vicious_'
'uci'
'tire_'
'skin'
'shes_'
'secretly_'
'schem'
'rust'
'repa'
'pH'
'obs'
'nds_'
'manifest'
'lw'
'listed_'
'irony_'
'inso'
'inf'
'hc'
'handle'
'giỏ_'
'frightening_'
'experimental_'
'eto'
'entitled_'
'elu'
'eas'
'earth'
'diner_'
'corn'
'conservation_'
'compass_'
'bench_'
'aliz'
'adj'
'] - _'
'Wen'
'Thuỵ_'
'Terrence_'
'Teresa_'
'Temp'
'TEDx'
'Scoo'
'Port_'
'Popp'
'Pil'
'Nat_'
'Mercy_'
'Kay_'
'HD_'
'Gir'
'Front_'
'Ferra'
'Fast_'
'Fact'
'Eve'
'Borde'
'Aff'
'71_'
'ủa_'
'đạm_'
'èn_'
'surprisingly_'
'sofa_'
'snakes_'
'slim'
'scandal_'
'remembering_'
'ras_'
'rans'
'radio'
'quạ'
'pyramid_'
'pollen_'
'org'
'nặc_'
'mist'
'losses_'
'lists_'
'lade'
'kl'
'hopeless_'
'guide'
'grape'
'forbid_'
'flexible_'
'flash'
'feeds_'
'feast_'
'distraction_'
'despair_'
'cá'
'cum'
'cip'
'chari'
'carb'
'cannon_'
'announcement_'
'Xu_'
'Wickham_'
'WHO_'
'Vĩnh_'
'Túi_'
'Thorn_'
'Thorn'
'Than_'
'Rory_'
'Ron'
'Rico_'
'Moss'
'John'
'Ivar_'
'Gorg'
'Doris_'
'Dim'
'Comm'
'Blade_'
'Against_'
',..'
'Ạ'
'Đá'
'wakes_'
'ton'
'sà'
'shiny_'
'representative_'
'rash_'
'pale_'
'oven_'
'mợ_'
'mouths_'
'mm'
'marathon_'
'lords_'
'junior_'
'hoa'
'harbor_'
'gus_'
'guardian_'
'fiber_'
'fair'
'extended_'
'erl'
'dial_'
'cước_'
'cows_'
'conflicts_'
'bạ_'
'brick_'
'bef'
'basi'
'backed_'
'approaches_'
'adorable_'
'activate_'
'act'
'abducted_'
'Ziggy_'
'Wheeler_'
'Viking_'
'Terra'
'Smurf'
'Sil'
'Sali'
'Robb_'
'Quant'
'Of'
'Nữa_'
'Muhammad_'
'Ministry_'
'Mana'
'Lum'
'Lilly_'
'Libby_'
'Lay_'
'Lat'
'Kro'
'Kie'
'Jur'
'Ià_'
'Islamic_'
'Forward_'
'Flu'
'Dunn'
'Chee'
'CM'
'Bud'
'Beat_'
'Ande'
'Aa'
', ♫ ♫ _'
' # # _'
'zie'
'youngest_'
'vertical_'
'venture_'
'ully_'
'type'
'tuột_'
'trusting_'
'shrimp_'
'sexually_'
'quai'
'programmed_'
'predators_'
'prec'
'pher_'
'persons_'
'pap'
'overlook'
'jol'
'hốt_'
'hunted_'
'fresh'
'formal'
'favourite_'
'expedition_'
'doomed_'
'correspond'
'ckle'
'cani'
'breeding_'
'ain'
'advised_'
'Zhang_'
'Write_'
'Waiting_'
'Vic'
'Trống_'
'Tris_'
'Serge'
'Scooby_'
'Ryu_'
'Quyển_'
'Plat'
'Mumbai_'
'Lockwood_'
'Hotchner_'
'Erica_'
'Det'
'Dawson_'
'Chancellor_'
'Candy_'
'Bee_'
'Appro'
'60s_'
'125_'
'.:'
') - _'
'ẹ_'
'đã'
'úa_'
'ình_'
'­_'
'zin'
'xao_'
'trượng_'
'til'
'sling'
'ré'
'rium_'
'renew'
'raining_'
'quất_'
'prof'
'polio_'
'peer_'
'overp'
'neighborhoods_'
'ment'
'lửng_'
'lun'
'longest_'
'lk'
'lesbian_'
'lawn_'
'kilo'
'jin_'
'intervention_'
'gur'
'fel'
'excuses_'
'ew_'
'ende'
'eag'
'desc'
'crowded_'
'confusing_'
'concepts_'
'compli'
'bonus_'
'bald_'
'amine_'
'Xấu_'
'Wars_'
'Ship'
'Prison_'
'Parkinson_'
'Laden_'
'Katrina_'
'Kala'
'HH'
'Egyptian_'
'Dầu_'
'Dub'
'Disa'
'Choi_'
'Bầu_'
'Brooke_'
'Ani'
'89_'
'ự_'
'ẽ'
'ẫu_'
'̀'
'Ái_'
'xư_'
'what'
'vain_'
'unrea'
'unclear_'
'trick'
'survivor_'
'shocking_'
'sensory_'
'psychopath_'
'pri'
'pret'
'possessed_'
'pioneer'
'opt'
'ncing_'
'lish_'
'ively_'
'impo'
'hamburger_'
'greedy_'
'framed_'
'foul_'
'equa'
'elect'
'edges_'
'cting_'
'counted_'
'concentration_'
'comp'
'clone'
'casualties_'
'bugg'
'boy'
'bent_'
'adopt_'
'abe'
'Vlad_'
'Toronto_'
'Tac'
'Slu'
'Sever'
'Pul'
'Penelope_'
'Part'
'Mummy_'
'Lạc_'
'Lucius_'
'Khối_'
'Hộp_'
'Hid'
'Haw'
'Donovan_'
'Cour'
'Butt'
'Band'
'Μ'
'Đéo_'
'àng_'
'Áp_'
'yin_'
'xed_'
'worms_'
'wha'
'via'
'touches_'
'tain'
'sucker_'
'spaghetti_'
'rụi_'
'rly_'
'reacti'
'prevent'
'possess_'
'pitche'
'pairs_'
'ownership_'
'outli'
'như'
'nea'
'lứa_'
'insert'
'implant'
'heels_'
'hears_'
'guidance_'
'ghim_'
'equi'
'eous_'
'dĩa_'
'drowned_'
'dinosaur_'
'desp'
'depo'
'có'
'annual_'
'Ut'
'Test'
'Lena_'
'Laurie_'
'Jav'
'Illinois_'
'Giê_'
'Gao_'
'Fah'
'Edith_'
'Dụ'
'Chap'
'Bab'
'Andre'
'AI'
'81_'
'... ♪ _'
'Ả'
'ót_'
'wizard_'
'vanished_'
'thirty_'
'terr'
'tal'
'symbols_'
'steal'
'span_'
'snatch'
'shoot'
'serves_'
'scars_'
'retard'
'regulations_'
'prom_'
'preach'
'potatoes_'
'ole'
'mirrors_'
'magnet'
'loo_'
'iron'
'ira_'
'ior'
'inat'
'imb'
'hó'
'genuine_'
'flame_'
'extension_'
'expanding_'
'elin'
'drain'
'dos'
'discharge'
'delighted_'
'cope_'
'convert_'
'compliment_'
'cartel_'
'buddies_'
'branches_'
'booze_'
'blast'
'bby_'
'atu'
'alter_'
'Xuân_'
'Weaver_'
'Vick'
'Ub'
'Sz'
'Spring_'
'Slo'
'Sina'
'Simple_'
'Pant'
'Olaf_'
'Nai'
'Jane'
'Jag'
'Hạt_'
'Happ'
'Fischer_'
'Duk_'
'Dee_'
'Connecticut_'
'Chế_'
'Caval'
'Cand'
'Brin'
'Bod'
'Becke'
'Appa_'
'AS_'
'Ơ'
'ùi_'
'yield_'
'wr'
'vis_'
'violin_'
'tron_'
'towns_'
'sought_'
'smoke'
'smash_'
'slaughter_'
'set'
'rô'
'robber'
'recruit_'
'punch'
'prefer'
'miner'
'mammo'
'lũy_'
'lóc_'
'logists_'
'lder_'
'ific'
'harmony_'
'giục_'
'funn'
'expense_'
'esse'
'coverage_'
'container_'
'contacted_'
'confront_'
'ath'
'ada'
'Wha_'
'TLE'
'Shen_'
'Sell'
'Selina_'
'Rocky_'
'Pum'
'Press_'
'Lí_'
'HAN'
'Deli'
'Chuy'
'Bones_'
'Antony_'
'1997_'
'08_'
'ụng_'
'đút_'
'Ó_'
'º_'
'£_'
'zoo'
'undo'
'tâ'
'trát_'
'truyê_'
'text'
'tales_'
'suôn_'
'spook'
'spoil_'
'smuggle'
'sia_'
'show'
'sense'
'scales_'
'rv'
'rig'
'rid'
'religions_'
'refu'
'portrait_'
'oan_'
'ngòi_'
'ngt'
'interfere_'
'horr'
'gân_'
'forge'
'eve'
'enter'
'doubts_'
'dot'
'demon'
'cỏi_'
'ctive'
'cri'
'continuing_'
'commands_'
'cod'
'chore'
'cade'
'avoiding_'
'altitude_'
'Wire'
'Trực_'
'Tol'
'Siberia_'
'Prim'
'Nhảm_'
'Musta'
'Mull'
'Moro'
'Minnesota_'
'Laughs_'
'Lana_'
'Islands_'
'Ham_'
'FIN'
'Drazen_'
'Cheng_'
'CO_'
'450_'
'-- - _'
'ởn_'
'ằm_'
'àn'
'yan_'
'ull'
'uate'
'ting'
'texting_'
'tec'
'skilled_'
'shifting_'
'sensor_'
'sens'
'sculpture_'
'sacrificed_'
'pump'
'probability_'
'phật_'
'osi'
'nose'
'nhộn_'
'nho'
'legally_'
'lass_'
'khi'
'issued_'
'infant_'
'hint_'
'heroic_'
'heli'
'fulfill_'
'ffle'
'explorer'
'emotionally_'
'ej'
'dumb'
'drowning_'
'drawings_'
'dn'
'disturb_'
'deu'
'bowling_'
'bbl'
'Zuko_'
'Xư'
'Vie'
'Vaughn_'
'Tần_'
'Sô_'
'Sullivan_'
'Scotch_'
'Raz'
'Protect_'
'Olympics_'
'OM'
'Nổ_'
'Nana_'
'Má'
'Medici_'
'McDonald_'
'LeAnn_'
'Lau_'
'Kaz'
'Jensen_'
'Indy_'
'Hono'
'Herr_'
'Hawking_'
'Geni'
'Fly_'
'Days_'
'Chút_'
'Chuột_'
'Brent_'
'Break'
'Beethoven_'
'Arl'
'Albuquerque_'
'! ?_'
' -- -- _'
'ọ'
'ẽo_'
'Đảm_'
'zombie_'
'zie_'
'zen_'
'wy'
'vomit'
'vere'
'vampires_'
'united_'
'trâ_'
'threshold_'
'theft_'
'temperatures_'
'singer_'
'shove_'
'shar'
'regarding_'
'rand'
'presum'
'pred'
'pp'
'owes_'
'ored_'
'obesity_'
'notif'
'nne_'
'ngượng_'
'merge'
'mea'
'maze_'
'liking_'
'infinit'
'grandpa_'
'gel_'
'fica'
'este'
'eran'
'enlighten'
'dt_'
'display'
'disp'
'digest'
'dic'
'dentist_'
'consumed_'
'chased_'
'ces'
'care'
'brakes_'
'attempts_'
'atta'
'ape_'
'ap_'
'ai'
'Years_'
'Warden_'
'Victor'
'Starfleet_'
'Record'
'Pinkman_'
'Odin_'
'Mora'
'Miền_'
'Mira_'
'Mandela_'
'Mah'
'Lợi_'
'Kris'
'Hart'
'Gau'
'Emergency_'
'Dimitri_'
'Dicky_'
'DIE'
'Couple_'
'Cosette_'
'Chang'
'Bụ'
'Bos'
'90s_'
'61'
'38'
'ệ'
'ễu_'
'Địt_'
'Ñ'
'variable'
'unfa'
'tết_'
'tấp_'
'traces_'
'tici'
'sunset_'
'stan_'
'skeleton_'
'reinforce'
'quật_'
'peri'
'overwhelming_'
'ncti'
'nang_'
'mentor_'
'mel'
'lore'
'lane_'
'jar'
'initiative_'
'homo'
'hee_'
'haunted_'
'furt'
'favors_'
'extinction_'
'evi'
'dí_'
'dull_'
'cracks_'
'countless_'
'conceal'
'cien'
'chen'
'cello_'
'brand'
'asa'
'Xếp_'
'Well'
'VC'
'Tric'
'Spe'
'Sign_'
'Shin_'
'Schmidt_'
'Romano'
'Ore'
'NC'
'Media_'
'Mare'
'Lancelot_'
'LIKE_'
'Hà'
'Góc_'
'Gatsby_'
'Dud'
'Coach_'
'Chấm_'
'Burke_'
'Baratheon_'
'Aldous_'
'Abra'
'186'
'!'
'ễm_'
'đóm_'
'_'
'xia'
'wheat_'
'varie'
'underlying_'
'ude_'
'tow'
'sweet'
'stamp'
'shirts_'
'seventh_'
'sec'
'sadness_'
'revolution'
'pest'
'ncy_'
'méo_'
'mosquito_'
'miê_'
'minist'
'mina'
'main'
'llow'
'liberal_'
'interviewed_'
'integrity_'
'impacts_'
'grind'
'ghte'
'ful'
'fork_'
'fest'
'fertili'
'farther_'
'exhibition_'
'enjoy'
'duties_'
'dressing_'
'dictionary_'
'dens'
'defect'
'defe'
'courtesy_'
'clan_'
'calculate_'
'arche'
'acc'
'Yon'
'Wesley_'
'Ung_'
'Syn'
'Sully_'
'Speci'
'Snake_'
'Sca'
'SM'
'Răng_'
'Pru'
'Môi_'
'Mèo_'
'Medical_'
'Massachusetts_'
'MR'
'Lang'
'JU'
'Helm'
'Gum'
'GET_'
'Fox'
'Daw'
'Borgia_'
'Beth'
'Beck_'
'Bangladesh_'
'Appl'
'¥_'
'xua_'
'uh'
'troubled_'
'terminal_'
'tent'
'tag'
'strat'
'static_'
'stag'
'spine_'
'sphe'
'sniper_'
'slo'
'shove'
'shifts_'
'riti'
'righteous_'
'reflecti'
'rdinate'
'proto'
'principal_'
'porch_'
'phư'
'nhò'
'mr_'
'mali'
'lop'
'lig'
'kee'
'justify_'
'import'
'hri'
'house'
'hell'
'flat'
'filming_'
'enn'
'empti'
'emails_'
'elop'
'egat'
'economists_'
'dragging_'
'devoted_'
'banana_'
'aya'
'api'
'animation_'
'Zamb'
'Wag'
'Virus_'
'Tỷ_'
'TH_'
'Sut'
'Scor'
'Nguyệt_'
'Nash_'
'Mona_'
'Mad_'
'MR_'
'LIN'
'KHÔNG_'
'Guid'
'Dư'
'Deep'
'Das'
'Damm'
'Bellick_'
'Babe_'
'29'
''...'
'ếc_'
'venti'
'tting_'
'tomb_'
'steer_'
'skate'
'scrub'
'rge'
'reminder_'
'realis'
'prosecut'
'pris'
'perp'
'penguin_'
'occurs_'
'nà'
'nel'
'nac'
'mov'
'mole_'
'marrow_'
'mak'
'maintenance_'
'lốc_'
'legit'
'late'
'lamb_'
'kidneys_'
'kara'
'innovat'
'improving_'
'ilia'
'frequently_'
'felon'
'face'
'eus_'
'diêm_'
'diaper'
'daw'
'crawling_'
'cost'
'consumers_'
'confirmation_'
'chee'
'campaign'
'cai'
'bư'
'betting_'
'ammo_'
'ador'
'accord'
'abr'
'["_'
'Tốc_'
'Titus_'
'Tig'
'Tanya_'
'Sui'
'Sty'
'Richards_'
'Prov'
'Kẹo_'
'Kho_'
'Jonny_'
'Jan_'
'JE'
'ISI'
'Hãn_'
'Hulk_'
'Gon'
'Glass_'
'Ghul_'
'Gav'
'Fernando_'
'Federation_'
'Fed'
'Esca'
'Down'
'Dod'
'Demo'
'Dark'
'Cops_'
'Clara_'
'Brilliant_'
'Asshole_'
'Alicia_'
'Aki'
'---'
'whisper'
'walk'
'vate'
'unn'
'tures_'
'trỗi_'
'tream_'
'tma'
'superpower'
'starv'
'shipment_'
'shack'
'secured_'
'sakes_'
'patron'
'opp'
'oes_'
'nhậu_'
'neglect'
'navigate_'
'morality_'
'mentally_'
'marshal_'
'lone_'
'labor'
'interactive_'
'iPod_'
'hum_'
'glucose_'
'dãi_'
'destined_'
'cọ'
'cày_'
'custom_'
'cia_'
'chắ'
'chatt'
'cardiac_'
'bít_'
'bunny_'
'autopsy_'
'assumption_'
'artistic_'
'architects_'
'archer'
'Wolf'
'Trọng_'
'Sân_'
'Switzerland_'
'Suns'
'Short_'
'Quy'
'Pes'
'Neu'
'Neo_'
'NS_'
'Lian_'
'Lia'
'Harriet_'
'Hannibal_'
'Fou'
'Channel_'
'CTU_'
'Alf'
'Aha_'
'AL_'
'360_'
'Đệt_'
'Đă'
'Đâ_'
'veni'
'unprecedented_'
'tox'
'sục_'
'systematic'
'statu'
'skies_'
'scheme_'
'resting_'
'responses_'
'resona'
'politician_'
'phẫn_'
'patriot'
'now'
'noi'
'nod'
'neg'
'mei'
'medal'
'manufacture'
'magazines_'
'lip_'
'know'
'ito_'
'inse'
'initiate'
'ill'
'ii'
'hash'
'groo'
'gala'
'fog_'
'final'
'ffy_'
'faint_'
'ethical_'
'dough_'
'dime_'
'detected_'
'cide'
'caus'
'candle_'
'bothered_'
'bell'
'baker'
'amend'
'ade'
'Wee'
'Tull'
'Tob'
'Storm_'
'Stal'
'Spr'
'Society_'
'Smile_'
'Rover_'
'Pol'
'Plaza_'
'Pandora_'
'PR_'
'Nyssa_'
'Ngón_'
'Malt'
'Ly_'
'KING_'
'Indiana_'
'Holiness_'
'Fu_'
'Cựu_'
'Beyond_'
';'
' :'
'Ứ'
'transparency_'
'traditions_'
'toan'
'tighte'
'sò_'
'spat'
'sole_'
'shoots_'
'sedat'
'rợn_'
'restaurants_'
'register_'
'reads_'
'pupp'
'probe_'
'potato_'
'poo_'
'plasma_'
'pec'
'oids_'
'lằn_'
'kẽ_'
'ised_'
'invo'
'installed_'
'hẻo_'
'hug'
'hacking_'
'ggles_'
'gari'
'fraction_'
'fine'
'fall'
'executi'
'emerged_'
'ebe'
'dằn_'
'dessert_'
'cus'
'cosmic_'
'copy'
'contribut'
'const'
'chuckles_'
'carrot'
'bubbles_'
'assumptions_'
'UT'
'Trà_'
'Tria'
'Sonia_'
'Simba_'
'Sharp_'
'Sav'
'STO'
'Reli'
'RN'
'RA_'
'Mycroft_'
'Matthews_'
'Lượ'
'Luckily_'
'Louisiana_'
'Look'
'Kind'
'Judg'
'Jud'
'Hur'
'Guardian_'
'Ew'
'Evans_'
'Dominic_'
'Darius_'
'Crane_'
'Cole'
'Chớ'
'CON'
'CDC_'
'CC'
'Bear'
'Aud'
'2030_'
'1945_'
'--'
'**'
'"] '
'ệch_'
'ếm_'
'è'
'yak'
'vít_'
'ury_'
'ural'
'uncover'
'tramp'
'tile_'
'thank'
'tate_'
'sunshine_'
'sulf'
'starve_'
'stack'
'stability_'
'slower_'
'settle'
'self'
'rn'
'requirement'
'representation_'
'realise_'
'reactions_'
'raid'
'predictable_'
'perceive_'
'oi'
'niêm_'
'neuron_'
'mc'
'lụt_'
'lure_'
'lim_'
'ledge_'
'kun_'
'kke'
'kel'
'kHông_'
'ited_'
'infi'
'honor'
'het'
'hatch_'
'greatly_'
'glob'
'fying_'
'erson_'
'ect_'
'ece'
'dogg'
'dist'
'discre'
'creep'
'cooler_'
'compelling_'
'challenged_'
'burglar'
'bounty_'
'beautifully_'
'atomic_'
'assassination_'
'ark_'
'amazed_'
'adrenaline_'
'abi'
'Wild'
'Vor'
'Vani'
'Skeeter_'
'Running_'
'Rand'
'RP'
'Powell_'
'Phạm_'
'Palm_'
'Núi_'
'Lopez_'
'JFK_'
'Gang_'
'Flying_'
'Cặp_'
'Colli'
'Clin'
'Churchill_'
'Chip_'
'Bran'
'Ard'
'55'
'!"'
'ụ_'
'̃'
'vat'
'unte'
'unfold'
'tì'
'trous'
'trips_'
'tos'
'sút_'
'sustainability_'
'stuffed_'
'rẩy_'
'rạn_'
'ruins_'
'respects_'
'reassur'
'realistic_'
'rains_'
'prophecy_'
'pops_'
'plumb'
'oán_'
'orm_'
'observed_'
'nos'
'ngấ'
'nam'
'messenger_'
'mechanics_'
'mari'
'infa'
'há'
'genetically_'
'fitting_'
'empower'
'educat'
'dope_'
'dl'
'distress_'
'disability_'
'crypt'
'contain'
'commissione'
'cleaner_'
'candidates_'
'briefly_'
'brave'
'begged_'
'authentic_'
'aus'
'agree'
'acqui'
'Xiang_'
'Thiê'
'Technology_'
'Tad'
'Snow'
'Saa'
'SOL'
'Round_'
'Poli'
'Ope'
'Nương_'
'Michel'
'Ma'
'Lav'
'Kyoto_'
'Jen'
'Hero'
'Gale_'
'Ding_'
'Care_'
'Canyon_'
'Bil'
'Andrews_'
'AU'
'43'
'%_'
'Ồ'
'Đeo_'
'ông'
'ä'
'whe'
'wait'
'villain_'
'tưới_'
'tuck'
'tissues_'
'spite_'
'sociali'
'slot'
'salt'
'rạng_'
'runner_'
'repay_'
'rar'
'prescription_'
'plead'
'pickle'
'phông_'
'peel'
'nhă_'
'ngton_'
'nded_'
'mut'
'musician_'
'lottery_'
'lant'
'knights_'
'interp'
'imagining_'
'hao_'
'gặm_'
'gue'
'freaks_'
'erc'
'cả'
'consist'
'cakes_'
'bot_'
'blog'
'bets_'
'banish'
'assembly_'
'ament'
'adjust_'
'XI'
'Sản_'
'Sib'
'Quà_'
'Peni'
'Nhi'
'Marc_'
'Lặ'
'Lois_'
'Il_'
'Hương_'
'Hind'
'Harmon_'
'FDA_'
'Cruz_'
'Cruchot_'
'But'
'Billi'
'Barbie_'
'Assa'
'Aga'
'20s_'
'1900_'
'ọa'
'ầu_'
'zzle'
'xước_'
'xuâ_'
'vá'
'vet'
'tă_'
'tze'
'tap'
'tam'
'superhero_'
'sucking_'
'soft'
'sob'
'smashed_'
'serum_'
'screwing_'
'oz'
'opinions_'
'olo'
'olin'
'oge'
'missiles_'
'millennia'
'meri'
'lc'
'kindly_'
'jaw_'
'ival_'
'investing_'
'hea'
'hap'
'gation_'
'fold'
'dynamics_'
'devastating_'
'dev'
'corporations_'
'conquer_'
'chronic_'
'chromosome'
'bomber_'
'blonde_'
'authorized_'
'Yen'
'Went_'
'Way'
'Thinking_'
'Than'
'Thailand_'
'Tanzania_'
'Slav'
'Sang'
'Report'
'Pry'
'PLA'
'Monk'
'Lindsey_'
'Kitchen_'
'Keller_'
'Jet'
'Janine_'
'Hagrid_'
'Gy'
'Gera'
'Ga_'
'Eli_'
'Ear'
'Duc'
'CHU'
'Bast'
'Aww_'
'74'
'198'
'ùa_'
'_'
'yle'
'unwi'
'unh'
'sạc_'
'symptom_'
'storms_'
'statue_'
'special'
'snack_'
'setup_'
'savage_'
'sailing_'
'rà_'
'robotic_'
'rien'
'quadr'
'pru'
'procedures_'
'polish'
'ori_'
'nud'
'nitr'
'nhõm_'
'mond_'
'lining_'
'grandson_'
'gradually_'
'flavor_'
'extraction_'
'experiment'
'erin'
'emb'
'cuti'
'competitive_'
'compe'
'cheek_'
'chan_'
'cans_'
'bét_'
'bribe_'
'brace'
'bow'
'astonishing_'
'ape'
'antenna'
'alter'
'Yun'
'Trễ_'
'Targaryen_'
'Strat'
'Shri'
'Sas'
'Return_'
'Put'
'Not'
'North'
'Nicolas_'
'Marin'
'Madeline_'
'Machete_'
'Kìa_'
'Joyce_'
'Hond'
'Grodd_'
'Fran'
'Fil'
'Excellency_'
'Dick'
'DS_'
'Cổng_'
'Civil_'
'Boe'
'Bin'
'Attack_'
'1975_'
'18th_'
'- -'
'ò'
'yll'
'wer'
'wear'
'uss'
'translated_'
'thốn_'
'teas'
'sensation_'
'seni'
'seize_'
'rú'
'rke'
'risking_'
'residence_'
'reproducti'
'race'
'poorest_'
'pas'
'ont'
'nới_'
'ninja_'
'neutral_'
'naughty_'
'monitor'
'mitt'
'lunatic_'
'loads_'
'lera'
'lasted_'
'lair_'
'insti'
'insect_'
'hed'
'get'
'evacuate_'
'escalat'
'dred_'
'deceased_'
'dab'
'conservative_'
'bt'
'battlefield_'
'aris'
'ambassador_'
'affordable_'
'Wash'
'Thom'
'Tarzan_'
'TM'
'Sul'
'Stamper_'
'Sis'
'Pale'
'Oswald_'
'Nhịp_'
'Myst'
'Mons'
'Mone'
'Liar_'
'Knowing_'
'Ish'
'Hamm'
'Games_'
'Fie'
'Dos'
'Daily_'
'Conve'
'Communi'
'Colo'
'Cart'
'Brandy_'
'Boul'
'Ann'
'Andie_'
'212_'
' --- _'
'“_'
'Ủ'
'xo_'
'world'
'traumatic_'
'transg'
'torpedo'
'tong'
'tern'
'tends_'
'sund'
'sible_'
'shri'
'shorter_'
'rider_'
'responded_'
'regularly_'
'regime_'
'publicly_'
'prosperity_'
'precaution'
'ppy_'
'picnic_'
'núp_'
'nutrition_'
'nowadays_'
'nchi'
'nas'
'merc'
'melting_'
'lil'
'like'
'igat'
'hoă_'
'habita'
'guessed_'
'gallery_'
'flourish'
'flick'
'eval_'
'declare_'
'commission_'
'coins_'
'chíp_'
'chênh_'
'caves_'
'capitalism_'
'cam'
'aye'
'asi'
'arian_'
'apo'
'alc'
'admira'
'achievement_'
'Tiện_'
'Taub_'
'Scylla_'
'Scu'
'Rodney_'
'Nurse_'
'Nie'
'Movem'
'Led'
'Kri'
'Gai'
'Fusco_'
'Essex_'
'Elliott_'
'Dubai_'
'Deputy_'
'Cry'
'Close'
'Beverly_'
'Agg'
'ABOUT_'
'; '
'7895_'
'ờm_'
'Ờ'
'ĩ'
'Đa'
'òng_'
'wl'
'volt'
'tưng_'
'tti'
'treaty_'
'titan'
'tine_'
'sweater_'
'submit_'
'schi'
'rương_'
'rna'
'revenue_'
'researcher_'
'reef_'
'realizing_'
'productivity_'
'popped_'
'pollut'
'persuade_'
'osp'
'ogi'
'nate'
'musicians_'
'morph'
'loca'
'lda_'
'istic'
'inc'
'hockey_'
'hav'
'gger_'
'gate'
'gara_'
'dominat'
'disse'
'disin'
'desert'
'cheer'
'characteristics_'
'cemetery_'
'bùm_'
'breath'
'biếm_'
'ars'
'arrogant_'
'armor'
'appreciated_'
'aby'
'Wre'
'Wonder_'
'WHI'
'Vu_'
'Vern'
'Unit_'
'Tuck_'
'Tree'
'Tooth'
'Theo'
'Starbucks_'
'Ruby_'
'Oxy'
'Margo_'
'Khôn'
'KS_'
'Insu'
'Hold'
'Giày_'
'Dee'
'DID_'
'Creat'
'Courtney_'
'Came_'
'Barri'
'Andrei_'
'Ahn_'
'Agnes_'
'73_'
'ớm_'
'ảm_'
'ạn_'
'đành_'
'¢_'
'zza'
'wing'
'vn_'
'violation_'
'veter'
'ust'
'urg_'
'tig'
'sunrise_'
'spared_'
'snip'
'sen'
'seemingly_'
'referring_'
'rak'
'precinct_'
'philosopher_'
'panels_'
'packs_'
'orp'
'occasionally_'
'mouth'
'mother'
'may'
'kow'
'jean_'
'involvement_'
'insist'
'ingen'
'impa'
'i1_'
'hán_'
'hydro_'
'hou'
'grocery_'
'graph'
'expansion_'
'evol'
'elf_'
'disr'
'delivering_'
'cẩm_'
'cot'
'cl'
'businessman_'
'bloom'
'beg'
'backpack_'
'altogether_'
'Wald'
'Vơ_'
'Used_'
'USA_'
'Tran'
'Thorne_'
'Stack'
'Sighs_'
'Rest_'
'Portland_'
'PT'
'Nathaniel_'
'Mộ'
'Muirfield_'
'Mostly_'
'Mills_'
'Lui'
'Lai_'
'Intelligence_'
'Hạ'
'Hebrew_'
'Hark'
'Get'
'ERS_'
'Direct'
'Demon_'
'Dane_'
'DU'
'Coch'
'Chairman_'
'Bent'
'Bare'
'Alis'
'Aka'
' == '
'–_'
'ùn_'
'ày_'
'xẩy_'
'warm'
'vớt_'
'uto'
'untr'
'tripp'
'thrive_'
'sả'
'sustain_'
'stic'
'sleeps_'
'settlement_'
'rơ_'
'roses_'
'reserve_'
'reject_'
'prin'
'prayed_'
'pies_'
'panh_'
'optim'
'meaningless_'
'lum_'
'lag'
'independence_'
'hood'
'hom'
'hl_'
'hear'
'glimpse_'
'followers_'
'exploded_'
'eur_'
'engineered_'
'declin'
'conducted_'
'concu'
'comparison_'
'cles_'
'carto'
'brat'
'bid'
'asylum_'
'Yan'
'Trợ_'
'Trinh_'
'Thousands_'
'Talbot_'
'Sym'
'Span'
'Sab'
'PS_'
'Mũ_'
'Lanc'
'Including_'
'Ig'
'Hyper'
'Hiến_'
'Hip'
'Helga_'
'Enterprises_'
'Duy'
'DAN'
'Commissioner_'
'Boon'
'Beg'
'Baptist'
'Alam'
'.] '
'̀!_'
'òm_'
'veg'
'uncertainty_'
'smallest_'
'rặng_'
'rầ'
'roc'
'reap'
'react'
'publish_'
'pts_'
'pressed_'
'portion_'
'phẩ'
'phil'
'perver'
'paradigm_'
'oppos'
'nsu'
'mt_'
'lized_'
'kle'
'kil'
'khuấy_'
'int_'
'humani'
'heal'
'fame_'
'extrem'
'equipped_'
'enhance'
'encountered_'
'earliest_'
'dô_'
'dina'
'conju'
'conc'
'cabinet_'
'bathe'
'automatic_'
'ata_'
'altered_'
'\u\u'
'YO'
'Xé'
'Tỉ_'
'Toán_'
'Topper_'
'Thou'
'Talking_'
'TING_'
'Sug'
'Starting_'
'Row_'
'Ranc'
'Nổi_'
'Ninh_'
'Mob'
'Meghan_'
'Malick_'
'Locke'
'Lex_'
'Invi'
'Hein'
'Gw'
'Elvis_'
'EP'
'Dixon_'
'Different_'
'CRISPR_'
'Along_'
'Adel'
'99'
'1985_'
'""'
'wick'
'ula'
'uge'
'tạc_'
'tôi'
'tã_'
'tuế_'
'tuô_'
'trọc_'
'toll_'
'sweete'
'spli'
'spect'
'scaring_'
'scanner_'
'rogue_'
'ring'
'remotely_'
'relat'
'quis'
'pod_'
'phy_'
'panties_'
'onary_'
'oce'
'obsession_'
'ngả_'
'nest'
'matic_'
'mast'
'masc'
'mand'
'lowest_'
'limo_'
'kị_'
'kes'
'jun'
'jim'
'itt_'
'introduc'
'interacting_'
'ignit'
'ident'
'huýt_'
'gư'
'forem'
'flush_'
'execute_'
'exclusive_'
'divi'
'dicat'
'demi'
'dang'
'concept'
'ash_'
'appetite_'
'ades_'
'Us'
'Unt'
'Tố'
'Tah'
'Ris'
'Rey'
'Pentagon_'
'Pack_'
'Norway_'
'Nicola'
'Lừa_'
'Lights_'
'Kla'
'IV_'
'Hoạt_'
'Hour'
'Hawk_'
'Government_'
'ENT'
'Door_'
'Cheer'
'Bann'
'Arn'
'Alexandria_'
'Albert'
'188'
', -'
'+'
'Đạ'
'weak'
'warmer_'
'warden_'
'vow_'
'veri'
'tuna_'
'tub_'
'travel'
'thirds_'
'tari'
'swan'
'strategic_'
'slides_'
'significantly_'
'sells_'
'sect'
'requests_'
'reporters_'
'reckless_'
'reat'
'quỉ_'
'quake'
'purchase_'
'protest'
'parade_'
'output_'
'nể_'
'nightmares_'
'nca_'
'mount_'
'mond'
'miss'
'lìa_'
'lock'
'jurisdiction_'
'journalists_'
'itr'
'isolation_'
'interrogation_'
'hw'
'hitch'
'hb'
'grill'
'gori'
'gamma_'
'drop'
'downs'
'dolphins_'
'cts_'
'crib'
'convention_'
'conduct'
'catches_'
'cann'
'calendar_'
'buys_'
'addiction_'
'acceptable_'
'Zhu'
'Vet'
'UND'
'Trai'
'Touch_'
'Thoải_'
'Sửa_'
'Supp'
'Somalia_'
'Set'
'Schwar'
'Rain_'
'Phone_'
'Oh'
'Mindy_'
'Maxim'
'Kle'
'Hardy_'
'Hancock_'
'Grac'
'Ghê_'
'Fisher_'
'Fara'
'Extra'
'End'
'Bless_'
'Astro'
'ịnh_'
'ện'
'Đổ_'
'ÀN'
'writes_'
'wis'
'willing'
'wards_'
'wander_'
'vot'
'virtue_'
'unto_'
'unma'
'uit'
'tumors_'
'trespass'
'toni'
'teaches_'
'step'
'specialist_'
'sk'
'simi'
'rav'
'quir'
'previously_'
'pion'
'pilots_'
'perce'
'pens'
'ost'
'nutrients_'
'nick_'
'net'
'mortgage_'
'marvel'
'manh'
'hypothesis_'
'headlines_'
'first'
'exotic_'
'dột_'
'dra_'
'displace'
'cộ'
'cuff'
'corre'
'conclude_'
'bạt_'
'bridges_'
'bribe'
'beasts_'
'bag'
'award'
'assassins_'
'amb'
'acce'
'^'
'Verde_'
'Timo'
'Thiếp_'
'TRA'
'Sudan_'
'Sen_'
'SON_'
'Mitsu'
'Lup'
'Knee'
'Klingon_'
'Kill'
'Kant'
'Jonas_'
'Jedi_'
'Iceman_'
'INC'
'Hami'
'Fuller_'
'Fei_'
'Farmer_'
'Ex_'
'Edi'
'Clan'
'Caf'
'CNN_'
'Bullock_'
'Born_'
'Athena_'
'Angus_'
'Ahhh_'
'Abbott_'
'ỡn_'
'uste'
'upti'
'unsa'
'twin'
'transparent_'
'tionally_'
'threa'
'tering_'
'sticky_'
'simultaneously_'
'roles_'
'proposition_'
'precision_'
'pis'
'phách_'
'peasant'
'pancrea'
'offended_'
'occup'
'noises_'
'melt'
'lăm_'
'lyn_'
'kk'
'indicat'
'impli'
'ient_'
'identities_'
'farms_'
'croc'
'cos'
'conspir'
'confessed_'
'bs'
'blink_'
'bel'
'arrest'
'ama_'
'aero'
'Yea'
'Yah'
'Vale_'
'UC'
'Tyrell_'
'Tuyên_'
'Sola'
'Sno'
'Ske'
'Singh_'
'SWAT_'
'Ran_'
'Rais'
'Pot'
'Og'
'Nis'
'Montreal_'
'Micro'
'Marqu'
'Lát_'
'Lebanon_'
'Host'
'Horton_'
'Homo_'
'Hampton'
'Francesca_'
'Forest_'
'East'
'Clifford_'
'Chuck'
'Christians_'
'Cheese_'
'Ced'
'Begin'
'BS_'
'Aw'
'ANY'
'đó'
'Đình_'
'yum'
'timeline_'
'thó'
'thá'
'thou_'
'sympathy_'
'surviving_'
'skirt_'
'sac'
'runn'
'rov'
'ropes_'
'restricted_'
'reserv'
'rant_'
'predictions_'
'pok'
'pes'
'mode'
'mock'
'mia_'
'methane_'
'lor_'
'lee_'
'kilomet'
'investigati'
'interfer'
'inherent'
'imagery_'
'ifer'
'hats_'
'gua'
'fic'
'fellows_'
'eso'
'erv'
'erous'
'envi'
'enge'
'elb'
'ehouse_'
'eastern_'
'distr'
'disgust'
'cue_'
'complaint_'
'companion_'
'chưởng_'
'cand'
'calm'
'calculations_'
'bulb_'
'audit'
'aster'
'acy_'
'ab_'
'Zho'
'Vau'
'Titanic_'
'Simpson_'
'Schi'
'Sabr'
'Pier'
'NOW_'
'Midnight_'
'Maxi'
'Matty_'
'Madeleine_'
'Lega'
'Kon'
'Kiệt_'
'Herman'
'Granny_'
'Grady_'
'Friend_'
'Feels_'
'Ee'
'Dạy_'
'Dư_'
'Deb_'
'Cock'
'Bon_'
'Ava_'
'7917_'
'......'
'):_'
'‎'
'ến'
'ảng_'
'vỉa_'
'vò_'
'urs'
'unpa'
'unlock_'
'tract'
'tm'
'tiu'
'tis_'
'theless_'
'tf'
'telescopes_'
'sufficient_'
'rows_'
'rituals_'
'rily_'
'reducing_'
'psychologist_'
'poke_'
'pig'
'phôi_'
'permit_'
'pac'
'omet'
'nga'
'monument'
'melod'
'maneuver'
'lạ'
'losers_'
'industries_'
'indoor'
'icate_'
'hắc_'
'him'
'hesitate_'
'hallucinati'
'greet'
'giun_'
'fuckers_'
'expos'
'explosive_'
'explo'
'esco'
'ento'
'elephants_'
'elaborate_'
'drag'
'disti'
'disposal_'
'dee'
'constitution'
'conceive'
'classical_'
'circu'
'chuck'
'brew'
'bore_'
'beta_'
'bats_'
'ame'
'adr'
'Ya_'
'Xian'
'Wizard_'
'Wh_'
'Swan_'
'Scarlet_'
'Rourke_'
'Ritchie_'
'Rhodes_'
'RS_'
'RS'
'Public_'
'Petro'
'Ost'
'Nonsense_'
'Ngư'
'NK'
'Means_'
'Maine_'
'Leader_'
'Ip_'
'Hom'
'Galavan_'
'Fort'
'Fant'
'FU'
'Everywhere_'
'Cove'
'Core'
'Columbus_'
'Box'
'Bia_'
'AW'
'AK'
' ♫ '
'ính_'
'wk'
'volunteered_'
'utt'
'usti'
'und'
'triumph_'
'spends_'
'seizure_'
'sali'
'rrh'
'rod'
'refresh'
'prob'
'primarily_'
'periods_'
'ono'
'offensive_'
'nham_'
'ngoãn_'
'neuroscience_'
'măng_'
'mechanisms_'
'mar_'
'kon_'
'kol'
'knots_'
'jeans_'
'itt'
'ironic_'
'ipa'
'inviting_'
'intuition_'
'intr'
'incident'
'how'
'hiring_'
'haw'
'gno'
'fuss_'
'fly'
'export'
'erased_'
'encouraged_'
'employer_'
'eed_'
'diver'
'disturbed_'
'deliver'
'cred'
'copper_'
'cano'
'bounce_'
'aqua'
'andi'
'aic'
'advertise'
'Zhao_'
'Yuan_'
'Xây_'
'Vent'
'Unc'
'Tw'
'Tuy'
'Trúng_'
'Tee'
'Tae_'
'TB_'
'Sven_'
'Sting'
'Squ'
'Spit'
'SL'
'RG'
'OT'
'Negro'
'Nac'
'Melinda_'
'Marks_'
'MT_'
'Lot_'
'Lars_'
'Kha_'
'Juda'
'Je_'
'Ig_'
'III_'
'Giư'
'French'
'Focus_'
'Field_'
'FG'
'Ez'
'Ernesto_'
'Equ'
'Eni'
'Engine'
'Cá'
'Cub'
'Conno'
'Comb'
'Cogburn_'
'Chô'
'Bie'
'Beauty_'
'Bash'
'Base_'
'BP_'
'Armstrong_'
'Amo'
'ộn_'
'điểu_'
'ôtô_'
'´_'
'xổ_'
'vr'
'underp'
'tial'
'targeting_'
'taller_'
'substan'
'slowing_'
'simpler_'
'sayin_'
'rolls_'
'risked_'
'rem'
'reduction_'
'reconcil'
'prettie'
'plott'
'offs_'
'obstacles_'
'ngửa_'
'modest_'
'metaboli'
'lộc_'
'luggage_'
'ln_'
'kicks_'
'ink'
'illuminat'
'ild'
'ico_'
'hỡi_'
'haircut_'
'grade'
'gases_'
'fry_'
'ffs_'
'fat'
'ete_'
'ente'
'ender_'
'eco'
'dresses_'
'denial_'
'deni'
'cốp_'
'calculati'
'blend_'
'biase'
'acit'
'Tuli'
'TY_'
'Strike_'
'Sign'
'Shake_'
'Saturn_'
'Queen'
'Produc'
'Picture'
'Pep'
'Nori'
'Nhé'
'Mead'
'Lie_'
'Lead'
'Killed_'
'Josephine_'
'Ishaan_'
'ID'
'Hừm_'
'Haz'
'Harb'
'Gee_'
'Declan_'
'Cutter_'
'Cristina_'
'Brand_'
'Brain_'
'Arab'
'2020_'
''!_'
'ểu_'
'Τ'
'Đư'
'ên'
'ành_'
'àn_'
'xó'
'vie'
'uô_'
'urine_'
'uph'
'tod'
'ths_'
'that'
'tera'
'syl'
'swim'
'stan'
'sip'
'simulation_'
'shame'
'satisfy_'
'run'
'roi'
'ressed_'
'respond'
'provoke'
'proceed'
'presume_'
'pine_'
'mie'
'memor'
'marijuana_'
'manu'
'maniac_'
'ldo'
'karate_'
'ister_'
'interna'
'interco'
'injustice_'
'hời_'
'homi'
'halt_'
'graduation_'
'grad'
'globally_'
'fright'
'fracture'
'forged_'
'flee_'
'even'
'ester'
'ebra'
'distri'
'dismissed_'
'dire'
'cough_'
'contribution_'
'climbed_'
'clean'
'brin'
'blend'
'bases_'
'authoriz'
'attempting_'
'White'
'Vả_'
'Ush'
'Swi'
'Sing'
'Scorpion_'
'Read'
'Pike_'
'Nãy_'
'Nike_'
'Nag'
'Mino'
'Marines_'
'MC'
'Lắ'
'Lotus_'
'Krau'
'Kings'
'Hanna'
'Hall'
'Fitz'
'ED'
'Dora'
'Dead'
'Daniels_'
'Danger'
'Cecile_'
'Came'
'Back'
'Autobot'
'Apo'
'Admi'
'72'
'47'
' --'
' ( _'
'ườ'
'widely_'
'vũng_'
'uchi'
'uar'
'turb'
'transcend'
'tem_'
'sweating_'
'slaughtered_'
'shith'
'roman'
'repeated_'
'ranks_'
'rabbits_'
'puzzles_'
'preference'
'pledge_'
'pierc'
'phen'
'pani'
'ott'
'ord_'
'oil'
'oga'
'núm_'
'ming'
'metro'
'men'
'loop'
'lin'
'limitations_'
'kền_'
'investigator'
'imm'
'ime'
'hót_'
'hazar'
'gán_'
'ghbor'
'gd'
'fooling_'
'flor'
'fin_'
'farming_'
'estimated_'
'dượng_'
'disclos'
'disciple'
'dad'
'curat'
'credib'
'crashing_'
'celebrity_'
'calories_'
'burial_'
'bosses_'
'blue'
'barb'
'avenge_'
'arin'
'apologiz'
'ael_'
'Yum'
'World'
'Will'
'Whole_'
'Uns'
'Turk'
'Some'
'Râ_'
'Rut'
'Poly'
'Physic'
'Phiền_'
'Pari'
'PR'
'Nạp_'
'Nazca_'
'Nano'
'Murder_'
'Monty_'
'Meg'
'Lucrezia_'
'Liza_'
'Like'
'Lego_'
'Homeland_'
'Hel'
'Già_'
'Ghé'
'Gasp'
'Explain_'
'Dav'
'Committee_'
'Bott'
'Bettie_'
'Batiatus_'
'Bad'
'Avo'
'Abb'
'ws'
'wrestle'
'wl_'
'ware_'
'urge'
'uniforms_'
'underestimate_'
'tolera'
'temp'
'tch'
'tation_'
'tart'
'stiff_'
'smelled_'
'slay'
'secret'
'rry_'
'relie'
'real'
'punched_'
'pros'
'policeman_'
'phò_'
'partly_'
'ony_'
'oe_'
'novel'
'nost'
'ngn'
'morgue_'
'lé'
'kind'
'judges_'
'intentional'
'hert'
'exceed'
'essi'
'eness_'
'draft_'
'domain_'
'distort'
'diagnos'
'deto'
'defende'
'crum'
'contract'
'connects_'
'conn'
'compos'
'common'
'click'
'chm'
'cherry_'
'capabilities_'
'blea'
'bend'
'beep'
'ators_'
'atic_'
'adult'
'ache_'
'Xoay_'
'Tờ_'
'Trek_'
'Tie'
'Tam'
'Supergirl_'
'Ring_'
'Ral'
'Question_'
'Pray_'
'Pleasure_'
'Phantom_'
'Peck_'
'Nú'
'Nixon_'
'Nhấc_'
'Jenn'
'Jamal_'
'Iv'
'Isa'
'Hwa'
'Hans'
'Giảm_'
'Gig'
'Garrett_'
'Gaines_'
'Emme'
'Echo_'
'Dwight_'
'Cất_'
'Compa'
'Comme'
'Build'
'Briggs_'
'Box_'
'Barro'
'Bangkok_'
'Axe'
'Armando_'
'?''
'66'
'1986_'
'" - _'
'ẫy_'
'§ _'
'yam'
'xở_'
'wood'
'who'
'wer_'
'vấp_'
'visa_'
'vas'
'urin'
'tấ'
'tickle'
'tearing_'
'tac'
'suppo'
'strain_'
'stalli'
'spark_'
'sell'
'sas'
'runway_'
'rson_'
'rite_'
'replicat'
'rail_'
'pupil'
'phin'
'pets_'
'ous'
'oned_'
'ogr'
'oci'
'nick'
'nhọ'
'narrow'
'motorcycle_'
'miracles_'
'memorize'
'kka'
'keepers_'
'ito'
'invad'
'hing'
'heartbeat_'
'graphy_'
'gallon_'
'erne'
'enda'
'deed_'
'dedicat'
'cycles_'
'constructed_'
'comedy_'
'cH00C1E5EC_'
'bureau'
'biol'
'bark_'
'appear'
'algae_'
'abdom'
'\u \u_'
'YS_'
'Wheel'
'Tell'
'Smurfette_'
'Sir'
'Salt_'
'Rip'
'RINGS_'
'Pink_'
'Nur'
'Nigel_'
'Nazis_'
'Mig'
'Memori'
'Mallo'
'Mae_'
'Madrid_'
'Mach'
'Kỷ_'
'Kiên_'
'Jemma_'
'Gây_'
'Greene_'
'Ginger_'
'Ere'
'Digg'
'Dent_'
'Dag'
'DENNIS_'
'Crown_'
'Class_'
'CD'
'Blu'
'Benedict_'
'Angeli'
'Alde'
'Alad'
'Adr'
'Achilles_'
'? ♪_'
'37'
'30s_'
'̉'
'̀... _'
'đùng_'
'Án_'
'}'
'your'
'wonders_'
'wilderness_'
'voyage_'
'vine'
'tột_'
'translat'
'transfer'
'tolerate_'
'thread_'
'sympath'
'summit_'
'strangle'
'ssor'
'sound'
'scout_'
'rip'
'relaxed_'
'predator_'
'posi'
'pos'
'peculiar_'
'pearl'
'page'
'operator_'
'ologi'
'oblig'
'nhan'
'nerd_'
'moun'
'los'
'ired_'
'interv'
'implement'
'gò_'
'grounded_'
'fren'
'flatter'
'fier'
'fatt'
'extract'
'expressed_'
'ett'
'eth_'
'ese'
'eon_'
'endure_'
'ege'
'doubl'
'disappears_'
'deca'
'db'
'circuits_'
'certifi'
'carriage_'
'capability_'
'brun'
'booked_'
'boo_'
'beep_'
'aut'
'arous'
'anical'
'alan'
'\'
'Willi'
'Venezuela_'
'TÔ'
'Twin'
'Tri_'
'Tread'
'TIẾNG_'
'Rooster_'
'Rhett_'
'Rahl_'
'Pepe'
'Paper'
'Muộn_'
'Mum'
'Monster_'
'Moni'
'Minn'
'Lowe'
'Len_'
'Kik'
'Hô_'
'Gimme_'
'Ful'
'Dao_'
'Cỗ_'
'Coa'
'Chas'
'Burt_'
'Based_'
'And'
'54'
'39'
'1995_'
'..." _'
'... '_'
'ớn_'
'ỏ'
'ềnh_'
'đặn_'
'xú'
'xâ_'
'winners_'
'vulnerability_'
'ump'
'tá'
'transform'
'thin'
'thesis_'
'sửng_'
'sỏi_'
'seated_'
'scares_'
'rí'
'rous_'
'robust_'
'ribs_'
'record'
'readers_'
'reader_'
'què_'
'pouring_'
'pork_'
'pip'
'pigeon_'
'overwhelmed_'
'operational_'
'oke'
'ograph'
'ode_'
'ngư'
'neck'
'mặn_'
'mmi'
'mis_'
'microphone_'
'lr'
'lower'
'love'
'loans_'
'kíp_'
'keen_'
'jump'
'jit'
'inherited_'
'imitat'
'ibu'
'goose_'
'gma'
'ghe_'
'functioning_'
'fem'
'edo'
'dump'
'dos_'
'disma'
'depr'
'cuc'
'cone'
'condo'
'cations_'
'calib'
'bos'
'awaken'
'assess'
'asp'
'arra'
'ard'
'Youtube_'
'Winstone_'
'Vẻ_'
'Twice_'
'Toa'
'Săn_'
'Syr'
'Speed'
'Shif'
'SPE'
'SB_'
'Rivers'
'Quint'
'Patricia_'
'PM'
'PAR'
'Oakland_'
'Ngo'
'Má_'
'Mistress_'
'Mille'
'Lê_'
'Lung_'
'Loud'
'Lom'
'Kami'
'Julius_'
'Juli'
'Jose_'
'Joann'
'HR_'
'Geographic_'
'Euro'
'Dmitr'
'Cac'
'Bridget_'
'Blast'
'Bae'
'Acco'
'Aca'
'90'
'44'
'1994_'
'ản_'
'unw'
'ums_'
'ulin'
'sugar'
'structural_'
'slipper'
'shower'
'richest_'
'retrieve_'
'retri'
'resort_'
'ratio_'
'quez_'
'ports_'
'phích_'
'overseas_'
'ota_'
'oss'
'ordi'
'orc'
'onia_'
'momentum_'
'migration_'
'microb'
'managing_'
'kitty_'
'insights_'
'inhibit'
'incarcerat'
'ignorant_'
'hio'
'hairs_'
'hackers_'
'gw'
'gged_'
'ffer_'
'epic_'
'enlist'
'dong_'
'dining_'
'desir'
'describes_'
'cợt_'
'cracker'
'cord'
'cater'
'catalog'
'carrier'
'candles_'
'ballet_'
'aton'
'aspirin_'
'addict_'
'Zip'
'Wisconsin_'
'Wan_'
'WOR'
'Vill'
'Vig'
'Turing_'
'Thuyết_'
'Teach_'
'Summ'
'Slowly_'
'Shot_'
'Shi_'
'Sap'
'Rắc_'
'Roth'
'Real'
'Pháo_'
'Okja_'
'Nhỡ_'
'Nec'
'Monterey_'
'Leone_'
'Know'
'Key'
'Hyah_'
'Els'
'Cran'
'Cobb_'
'Bó'
'Asa'
'‎?_'
'ặt_'
'versions_'
'ute'
'uat'
'thình_'
'terrain_'
'sif'
'scratche'
'roll'
'resurrect'
'responsibilities_'
'rene'
'rell'
'reform'
'rebuil'
'programmer'
'perceived_'
'overhead_'
'ota'
'ocks_'
'nôi_'
'nhí'
'ners_'
'mayo'
'matrix_'
'marching_'
'ller_'
'lick'
'launder'
'ior_'
'integrated_'
'iers_'
'ient'
'hometown_'
'hijack'
'hau'
'fus'
'flam'
'eagle_'
'dấn_'
'divid'
'discoveries_'
'disagree'
'daf'
'cutt'
'condom_'
'coffin_'
'chara'
'celebr'
'bullie'
'breakthrough_'
'blaming_'
'bing'
'bay'
'atro'
'ander'
'advanc'
'acknowledg'
'Ultr'
'Tống_'
'Tiết_'
'Skinn'
'Shad'
'Rud'
'Rash'
'Pont'
'Pitt'
'Nairobi_'
'Mê_'
'Mes'
'Mend'
'Magnus'
'MUSIC_'
'Kub'
'Kentucky_'
'Humans_'
'Harlem_'
'Hades_'
'Fue'
'Franco'
'Dist'
'Dell'
'Chim'
'Chelsea_'
'Brien'
'Boot'
'Blackw'
'Biff_'
'Beam'
'Babb'
'Aro'
'.)_'
' *'
' %'
'Đâm_'
'zzy_'
'wart'
'versal'
'unnecessary_'
'tryin_'
'traits_'
'supervis'
'struct'
'striking_'
'steep'
'stakes_'
'seok_'
'resume_'
'regulate'
'questioned_'
'ques'
'pyr'
'protects_'
'primate'
'present'
'pop'
'pn'
'philanthrop'
'pension_'
'ores'
'oc_'
'nun_'
'nip'
'nhấm_'
'lasts_'
'knit'
'khă_'
'jin'
'ii_'
'hú_'
'hoe'
'hn_'
'headaches_'
'halls_'
'giềng_'
'eBay_'
'dried_'
'dge'
'defin'
'copi'
'chảo_'
'chlor'
'cease_'
'camo'
'bean_'
'bail'
'bacon_'
'auction_'
'apples_'
'applause_'
'aph'
'accelerati'
'Young'
'Wool'
'Waller_'
'Via'
'VIP_'
'Tywin_'
'Tyr'
'Travers_'
'Rene'
'Quang_'
'Peri'
'PER'
'Non'
'Maz'
'Marta_'
'Mandy_'
'Kean'
'Jinx'
'Hau'
'Grow'
'Gerald_'
'Gen_'
'Gas_'
'GH_'
'Fuckin_'
'Fos'
'Ers'
'Edinburgh_'
'Eat'
'Connect'
'Congr'
'Chow_'
'Chea'
'Carmi'
'Cali'
'CN'
'Bố'
'Bấ'
'Bowl_'
'Bomb'
'Bellamy_'
'Battle_'
'Amar'
'Afraid_'
';, _'
'7893_'
'... "'
'.) _'
'. - [_'
'ộp_'
'Ống_'
'ẵ'
'̉...'
'đế'
'Đí'
'ú'
'xê_'
'whin'
'wage_'
'vic_'
'ulf'
'tactics_'
'station'
'silicon_'
'script'
'ruining_'
'rotate'
'rigged_'
'rides_'
'repro'
'reel_'
'puff'
'psychiatrist_'
'peoples_'
'passwords_'
'pale'
'oul'
'oring_'
'nte_'
'metaphor'
'mattered_'
'lõ'
'jacke'
'inu'
'iner'
'incon'
'humanitarian_'
'headline_'
'graphics_'
'gorilla_'
'goo'
'floo'
'firew'
'ffle_'
'failures_'
'eyeball'
'evin'
'elit'
'dispute'
'conten'
'carved_'
'canvas_'
'cali'
'buck'
'bilities_'
'assist'
'arte'
'applying_'
'ans'
'alou'
'adoption_'
'actively_'
'abu'
'Zar'
'Warner_'
'UN_'
'Trum_'
'Tak'
'Stephanie_'
'Senior_'
'Rev'
'Rema'
'Porsche_'
'Plan_'
'Peterson_'
'Occ'
'Monte'
'Military_'
'Masa'
'Maj'
'Lucifer_'
'Loc'
'Liberia_'
'Kayl'
'Kat_'
'Justine_'
'Jamaica_'
'Israeli_'
'Inu'
'Grav'
'Gem'
'Freddie_'
'FIR'
'Energ'
'Enc'
'Drago'
'Donne'
'Domini'
'Comrade_'
'Chekov_'
'Budd'
'Barcelona_'
'Ada'
'48'
'.... '
'Ảo_'
'Đấm_'
'ÊN_'
'zle'
'yê_'
'yz'
'yh'
'xơi_'
'weaken'
'vita'
'thunder_'
'swam'
'strictly_'
'ssin'
'smartphone_'
'sher'
'separate'
'secondary_'
'screw'
'scam'
'safe'
'rắm_'
'rèm_'
'rer_'
'relation_'
'referred_'
'rance_'
'punish'
'param'
'painter_'
'pace'
'oca'
'myc'
'misf'
'matched_'
'marche'
'lled_'
'kidnap_'
'judged_'
'individual'
'ila_'
'hugg'
'hobby_'
'healthier_'
'gg_'
'genetics_'
'ganh_'
'front'
'forehead_'
'finite'
'fierce_'
'favorites_'
'ensi'
'educate_'
'dầ'
'doubled_'
'dling_'
'ctor_'
'counselor_'
'conce'
'communicating_'
'chuốc_'
'chol'
'carc'
'calo'
'boot'
'bip'
'bind_'
'banking_'
']:_'
'Tough_'
'Toretto_'
'Technically_'
'Sforza_'
'Secondly_'
'Sche'
'SEE'
'Rise_'
'Prin'
'PTSD_'
'OH_'
'Naga'
'Murph_'
'Messi'
'Maxwell_'
'Leland_'
'Lean'
'Hawkins_'
'Hammond_'
'Gấp_'
'Giu'
'Fist_'
'Eno'
'Emi'
'Economi'
'Darren_'
'Brut'
'Boov_'
'Board_'
'Ano'
'75'
''. _'
'ở'
'đọng_'
'ér'
'witt'
'vibration'
'upl'
'ule_'
'transport'
'trailer_'
'torment'
'thiế'
'thinker'
'tae_'
'stupid'
'statistical'
'start'
'spirit'
'spec'
'smartest_'
'shaft_'
'ros_'
'rif'
'restr'
'raises_'
'racist_'
'races_'
'prosper'
'pric'
'preparation_'
'pon_'
'plast'
'plank'
'perfume_'
'paradox_'
'outbreak_'
'nist'
'nhỡ_'
'mona'
'misu'
'lind'
'limbs_'
'lage'
'inva'
'inel'
'indulge'
'illus'
'huân_'
'hopp'
'gig'
'errand'
'embo'
'drip'
'disgrace_'
'dial'
'detector_'
'courses_'
'corridor_'
'claire_'
'cate_'
'cad'
'bộn_'
'bodyguard_'
'bod'
'beers_'
'beam'
'apos'
'aching_'
'accom'
'absent_'
'abortion_'
'Wand'
'Twee'
'Tut'
'Tart'
'Shen'
'Rica_'
'Radi'
'Nell_'
'Nakamura_'
'Kum'
'Iron'
'Hoả_'
'Gó'
'Gli'
'Ferrari_'
'Eff'
'Edison_'
'Champion'
'Casa'
'CRA'
'Bom_'
'Betsy_'
'Beowulf_'
'Baku'
'79'
'.. ..._'
'ởm_'
'ặng_'
'Đói_'
'õng_'
'òa'
'ña_'
'xing_'
'won'
'whoo'
'watts_'
'waitress_'
'uct'
'tạt_'
'tter'
'tling_'
'thệ_'
'takeo'
'swift'
'swallowed_'
'strengthen'
'ssa_'
'squat'
'spies_'
'specimen'
'sexi'
'semi_'
'scra'
'rùng_'
'rra'
'rme'
'riot_'
'reen'
'ract'
'quà'
'promoted_'
'pervert_'
'outp'
'oui'
'ntion_'
'nota'
'mir'
'lor'
'liv'
'librari'
'khuếch_'
'ibi'
'hổ'
'hosts_'
'hospitality_'
'hink'
'hhhh'
'has'
'grav'
'goo_'
'giga'
'gig_'
'fees_'
'factories_'
'evacuation_'
'emergenc'
'ella'
'eling_'
'dyna'
'dudes_'
'disguise_'
'delegat'
'corona'
'conde'
'bully_'
'bound'
'boost_'
'avat'
'assemble_'
'appli'
'ankle_'
'anes'
'ambush_'
'amateur_'
'allerg'
'affection_'
'Zam'
'Wind_'
'Warrior_'
'Um'
'Trai_'
'Tour'
'System_'
'Sex'
'Ride_'
'Rag'
'RC'
'Perf'
'Paul'
'NA_'
'Mona'
'Main'
'Loa'
'Leaving_'
'Koo'
'JH_'
'Irene_'
'Hubble_'
'House'
'Gib'
'Dusty_'
'Dio'
'Diaz_'
'Continue_'
'Chamber'
'Cel'
'Carry_'
'Carolyn_'
'CB'
'Bùm_'
'Barnett_'
'Ath'
'Agreed_'
'1996_'
'1989_'
'000'
'). _'
'"? _'
' ! '
'ữ'
'đụ'
'yon_'
'ycl'
'x0'
'vil'
'upsta'
'unpredictable_'
'universities_'
'tị'
'tyr'
'typ'
'testosterone_'
'tc'
'sảng_'
'swell_'
'stunning_'
'stinks_'
'spoon_'
'socially_'
'select_'
'scrap'
'sanit'
'rươ_'
'rth_'
'revolutionary_'
'resso'
'resist'
'rep'
'rehears'
'reflex'
'rear'
'pt'
'presiden'
'prescribe'
'premi'
'preacher_'
'poni'
'pod'
'pits_'
'peach'
'parab'
'optic'
'och_'
'nie'
'nian_'
'nating_'
'mỉ_'
'mysteries_'
'murderers_'
'moist'
'merit'
'livel'
'kép_'
'itive'
'istic_'
'ip_'
'inta'
'insta'
'ince'
'immun'
'ille'
'goon'
'gladiator'
'genom'
'fundrais'
'fon'
'feminist_'
'examin'
'encouraging_'
'dồi_'
'doct'
'detection_'
'deri'
'controversial_'
'confer'
'cockroach'
'cement_'
'calculated_'
'builds_'
'broc'
'bree'
'blink'
'berries_'
'astro'
'analog'
'ack'
'accepting_'
'Xander_'
'Winni'
'Ulrich_'
'Tub'
'Thie'
'Stars'
'Stalin_'
'Smell'
'Santo'
'SD'
'Raf'
'Proc'
'Phiên_'
'Kutner_'
'Kramer_'
'Ip'
'IF_'
'Hogwarts_'
'Griff'
'GM'
'Doo_'
'Dante_'
'Computer_'
'Clare_'
'Cháy_'
'Carla_'
'Bế'
'Burton_'
'Bei'
'Ballo'
'Bag_'
'Ast'
'Aq'
'Angi'
'Amm'
'Amberle_'
'792'
'210'
'ẹp_'
'́ '
'ăn'
'óng_'
'western_'
'ví'
'veil_'
'vary_'
'unan'
'umb'
'ulation_'
'tub'
'troll'
'trends_'
'thùy_'
'talk'
'surp'
'steroids_'
'startl'
'sneaker'
'slapp'
'sizes_'
'sig'
'sheer_'
'seduce'
'scro'
'satisf'
'ronmental'
'reveals_'
'reunion_'
'ress'
'prox'
'praise_'
'practi'
'parole_'
'objection'
'nhó'
'nghẹt_'
'newly_'
'negotiating_'
'mens'
'lúng_'
'loy'
'loading_'
'left'
'knot_'
'interpret_'
'interior_'
'intellect'
'influenced_'
'infections_'
'incentives_'
'impulse_'
'honey'
'founder_'
'exer'
'elders_'
'eighth_'
'domin'
'discour'
'disappointment_'
'confidential'
'combin'
'cháo_'
'child'
'blamed_'
'bandage'
'aur'
'attending_'
'agr'
'aesthetic'
'aches_'
'accumulate'
'Yellow_'
'TEDTalk'
'Summers_'
'SAR'
'Randolph_'
'Pod'
'Philippe_'
'Oa'
'OL_'
'Normally_'
'Mư'
'Muggle'
'Mohinder_'
'Moc'
'Miê'
'Lynn_'
'Kilo_'
'Helene_'
'Godda'
'Financ'
'Dâ'
'Cà'
'Bù'
'Bras'
'Angelina_'
'AA'
'15th_'
'- .'
'*.'
')}'
' ' _'
'~'
'zm'
'xốp_'
'warmth_'
'villa_'
'vict'
'trym_'
'tricked_'
'tread'
'thò'
'thigh'
'suitable_'
'sue'
'stimulate'
'spring'
'specialized_'
'smooth'
'sketch'
'significance_'
'separation_'
'rtion'
'rom'
'recl'
'recept'
'pref'
'pond_'
'pinn'
'peck'
'ok'
'offender'
'nos_'
'monsieur_'
'mating_'
'lus_'
'jammed_'
'iv'
'interpretation_'
'igi'
'hooker_'
'holders_'
'hill'
'harmless_'
'filter'
'endangered_'
'dry'
'dreamt_'
'donation_'
'dizzy_'
'discrimination_'
'chor'
'chew_'
'certificate_'
'brutal'
'brake_'
'aggression_'
'ager'
'adapted_'
'Yos'
'Walking_'
'Vodka_'
'Vai_'
'UK_'
'TON'
'THAN'
'Storm'
'Stage_'
'Sky'
'Si_'
'SUV_'
'STI'
'Reagan_'
'Pollock_'
'Pett'
'Patri'
'Orc'
'Obe'
'NS'
'Mess'
'Mae'
'Lâ_'
'Lone'
'Khiê'
'Jose'
'Jeff'
'Ivo'
'Igor_'
'Horn_'
'Hab'
'Gru_'
'Dyna'
'Duf'
'Dha'
'Cắ'
'Contact_'
'Carver_'
'Cant'
'Bãi_'
'Bran_'
'Bong_'
'Auntie_'
'Alg'
'AB_'
'. .._'
'&#_'
'ớc_'
'ĐI'
'ún'
'èm_'
'wider_'
'whisper_'
'welfare_'
'vượn_'
'vows_'
'urat'
'upward'
'tẹo_'
'tv'
'tuâ_'
'tional_'
'tenan'
'tattoos_'
'swarm'
'suck'
'straightforward_'
'spilled_'
'sights_'
'shr'
'releasing_'
'py'
'priv'
'orphan_'
'ological_'
'nol'
'ngách_'
'ngle_'
'mutation_'
'mist_'
'mindset_'
'metal'
'lur'
'limit'
'lifting_'
'kine'
'just'
'insult'
'instru'
'impuls'
'healed_'
'har_'
'gob'
'fir'
'evic'
'esd'
'eph'
'endi'
'end'
'ences_'
'dro_'
'draws_'
'dic_'
'dagger_'
'cto'
'cott_'
'coke_'
'ché'
'cet'
'cavalry_'
'atom_'
'affecting_'
'Zed_'
'Week'
'Wac'
'Utah_'
'Tui_'
'Tribbiani_'
'Timothy_'
'TS'
'TCH'
'TC'
'Seal_'
'Rui'
'Roya'
'Rosen_'
'Rai'
'REA'
'Priest'
'Note'
'Martini_'
'Maest'
'Mackenzie_'
'Lô'
'Kyung_'
'Kir'
'Khẩn_'
'KB_'
'Jerome_'
'Jak'
'Hạm_'
'Hendricks_'
'Gibson_'
'Fifth_'
'Fabio'
'Evening_'
'Ernst_'
'Ernie_'
'Eo'
'Eco'
'Early_'
'Cook'
'Canh_'
'Buffalo_'
'Brighton_'
'Brad'
'Bour'
'Bosnia_'
'Barack_'
'Away_'
'Aus'
'Airb'
'ạn'
'zar'
'ymo'
'wages_'
'uu'
'uninte'
'uhm_'
'tơi_'
'tuộc_'
'transmit_'
'traced_'
'thì'
'thriv'
'sáp_'
'sta_'
'smug'
'smiles_'
'scop'
'scape'
'sail'
'rệt_'
'recei'
'rebellion_'
'prai'
'point'
'pina'
'paral'
'owl_'
'overd'
'opa'
'odor'
'nks_'
'nig'
'nhót_'
'nhã'
'ngc'
'muck'
'moment'
'midst_'
'media'
'matt'
'loanh_'
'jail'
'introduction_'
'insecur'
'inet'
'huyệt_'
'hoff_'
'heads'
'hallucinations_'
'guided_'
'guarding_'
'groom_'
'glue_'
'expressions_'
'employ'
'ein'
'despise'
'demanding_'
'crow_'
'creep_'
'contents_'
'commercial'
'clarity_'
'chatter_'
'bần_'
'butcher_'
'buffe'
'bei'
'backing_'
'bach'
'augment'
'anomal'
'anH_'
'aha'
'agin'
'YEAH_'
'Xi_'
'THO'
'Someday_'
'Skipper_'
'Sent'
'Pool'
'Pie'
'PU'
'Oy'
'Morr'
'Medi'
'Made'
'Lagertha_'
'Kun'
'Kabu'
'Jenna_'
'Jeep_'
'Hạng_'
'Hansen_'
'HP'
'Groot_'
'Gong_'
'Gom'
'Fun_'
'Franny_'
'Fix_'
'Feeling_'
'EL_'
'Dre_'
'Dawn_'
'DER'
'Cron'
'Commiss'
'Circle_'
'Cancer_'
'Bú'
'Bucha'
'Britt'
'BEEP'
'Augustus_'
'Asi'
'Ando_'
'Africans_'
'AII_'
' ] '
'ăc'
'zzl'
'wax_'
'waiter_'
'unpleasant_'
'ulate_'
'ui_'
'toilets_'
'tie'
'teo_'
'tad'
'sô'
'suspens'
'submarine_'
'stud'
'stain_'
'specific'
'siti'
'screams_'
'scholarship_'
'rub'
'resilience_'
'repl'
'reinvent'
'recit'
'range'
'quâ_'
'posse'
'poems_'
'pm_'
'pixel'
'phobi'
'oso'
'numb'
'moor'
'manufacturer'
'managers_'
'ley'
'ledge'
'iy'
'intensive_'
'inge'
'hul'
'holidays_'
'heritage_'
'gàng_'
'gis'
'gim'
'genital'
'fugitive_'
'festival_'
'feathers_'
'favor'
'exhibit_'
'errors_'
'enables_'
'ein_'
'eck'
'earn'
'dir'
'development'
'darkest_'
'damag'
'cool'
'competing_'
'cere'
'cartoons_'
'canal'
'cada'
'butterfly_'
'booth_'
'boob'
'beau'
'bage'
'bacterial_'
'antidote_'
'alpha_'
'alia'
'York'
'Whitehall_'
'Wai'
'Tsu'
'Thổi_'
'Spear'
'Signor'
'Rod'
'Nic_'
'Morph'
'Mello'
'Melanie_'
'Manolo_'
'Magi'
'MAY'
'Loren'
'Leave'
'Learn_'
'Killer_'
'IA_'
'HOW_'
'Guinea_'
'Glades_'
'GRUNTS_'
'GRE'
'Chil'
'Bư'
'Blair_'
'Ava'
'Afghan_'
'")'
' [ _'
'♫_'
'ça'
'yth'
'weird'
'voi'
'vent_'
'uda_'
'tròng_'
'triggered_'
'tomato_'
'tolerance_'
'tog'
'temptation_'
'sụt_'
'surgical_'
'smart'
'slan'
'simulat'
'scru'
'sava'
'saur'
'rượt_'
'rocke'
'rio_'
'reve'
'restored_'
'rented_'
'rator'
'quad_'
'prosecutor_'
'priests_'
'prediction_'
'phr'
'photographed_'
'petty_'
'pari'
'paint'
'paci'
'ots_'
'ordering_'
'oma_'
'nly_'
'mushrooms_'
'mont_'
'lio'
'leap'
'khướ'
'khét_'
'ject_'
'je_'
'interference_'
'infect'
'indicates_'
'icat'
'gangster_'
'four'
'font'
'fari'
'fare_'
'fang'
'expressi'
'enabled_'
'eid'
'dit_'
'depress'
'deployed_'
'deliberately_'
'convert'
'convers'
'compliment'
'coffe'
'cm'
'civic_'
'capt'
'burr'
'builder'
'barriers_'
'ald_'
'accusation'
'ables_'
'Yusuf_'
'Ug'
'Top'
'Thai_'
'Te_'
'Sund'
'Spartan_'
'Shak'
'Pauli'
'Patro'
'Panc'
'Paint'
'Osa'
'Opp'
'Oa_'
'Net_'
'Lives_'
'Khoản'
'KO'
'Jung_'
'Hungary_'
'Heli'
'Foun'
'Eur'
'Deb'
'Damian_'
'Coll'
'Camille_'
'Burr'
'Brooks_'
'Anywhere_'
'Alvarez_'
'Alma_'
'Alc'
'Agh_'
'? [_'
'. ♪ _'
'$'
'ềng_'
'́ ?_'
'öu'
'waving_'
'ward'
'visits_'
'vert_'
'utterly_'
'undertak'
'unacceptable_'
'ulo'
'thing'
'tb'
'tana'
'sầu_'
'superh'
'snor'
'scanne'
'rôi_'
'roam'
'rence_'
'purely_'
'ppi'
'ply'
'phao_'
'papa'
'ouse'
'ose_'
'nity_'
'nhớ'
'motherfucking_'
'monks_'
'mafia_'
'lv'
'loot'
'liter'
'legendary_'
'jog'
'integrati'
'immers'
'hov'
'hang'
'greet_'
'giã'
'freed_'
'flock_'
'fee'
'editor'
'ecosystems_'
'doubt'
'dha'
'debat'
'cted_'
'creati'
'consum'
'complication'
'chừa_'
'chuâ_'
'chip'
'celebrated_'
'cavi'
'cath'
'categories_'
'belts_'
'bash'
'balcony_'
'arus_'
'artery_'
'aggr'
'Umbrella_'
'Tok'
'Tie_'
'Thoát_'
'TU'
'TIN'
'Springs_'
'Sol_'
'Schrader_'
'Rudy_'
'Rou'
'Reve'
'RL'
'Phủ_'
'Pear'
'Non_'
'Nhị_'
'Ngộ_'
'MT'
'Klein_'
'Joo'
'Issa_'
'Ike_'
'Howdy_'
'Herb'
'Healy_'
'Hang'
'Gris'
'Grail_'
'Giant'
'Ferguson_'
'Diamond_'
'Clary_'
'Clarence_'
'Brig'
'Aurens_'
'1970s_'
'." - '
''''
'ẫn_'
'Địch_'
'yw'
'wildlife_'
'variation_'
'triangle_'
'treats_'
'tracker_'
'tone'
'temper'
'suspicion_'
'stom'
'stamp_'
'sele'
'rter'
'rover'
'plain'
'pira'
'pat_'
'participation_'
'osis_'
'optimism_'
'oom_'
'nw'
'mả'
'mornin'
'mold_'
'mock_'
'mers_'
'maiden_'
'lust_'
'lon'
'kiế'
'kable_'
'inqui'
'inclusi'
'inappropriate_'
'impri'
'iar'
'heim'
'heel_'
'guaranteed_'
'graduat'
'governance_'
'glove_'
'geographic'
'game'
'gag'
'flown_'
'findings_'
'explod'
'estimates_'
'esc'
'eria'
'eliminated_'
'drift_'
'dread'
'conviction_'
'contemporary_'
'congr'
'cog'
'cit_'
'charts_'
'carna'
'capita_'
'brush'
'broadcast'
'briefcase_'
'av_'
'astronaut_'
'arg'
'appointed_'
'anz'
'accounting_'
'absorb_'
'Xảy_'
'Wood_'
'Travel'
'Tomas_'
'THI'
'Sâu_'
'Spli'
'Sob'
'Shield'
'SAM'
'Robert'
'Ramsey_'
'Psycho'
'Prof'
'Phổ'
'Patient_'
'Nông_'
'Nami'
'Mooney_'
'Meth'
'Matter'
'Lầu_'
'Lip'
'Ivy_'
'Hurt'
'Horse_'
'Hodg'
'His'
'Hilt'
'Hes'
'Hassan_'
'Grou'
'Griffin_'
'Fan'
'Epi'
'Emp'
'Earl'
'ESE_'
'Doe_'
'Dirty_'
'Dega'
'Cous'
'Clear'
'Caribbean_'
'Atom_'
'Anima'
'Alle'
'Acc'
'Abo'
'ắ'
'ï'
'x1'
'wheel'
'warhead'
'warfare_'
'view'
'unce'
'umi_'
'tó'
'tome'
'token_'
'thal'
'term'
'tactical_'
'sứa_'
'surro'
'sponsor'
'splash'
'sole'
'silen'
'sexuality_'
'sequenc'
'seam'
'ratt'
'pub'
'province'
'patholog'
'parasite_'
'outdoor'
'orgasm_'
'oon'
'nob'
'nna'
'nhẹn_'
'jour_'
'ios_'
'inis'
'họ'
'hăm_'
'hua'
'hop'
'heights_'
'gộp_'
'graffiti_'
'gel'
'gamble_'
'fries_'
'freeze'
'forgiven_'
'exhausti'
'etr'
'esto'
'enforce'
'dè_'
'dys'
'draw'
'dice_'
'contracts_'
'collaps'
'bore'
'bai_'
'attract'
'apparent_'
'airs'
'activist_'
'activat'
'Whereas_'
'Valerie_'
'Tồ'
'Treo_'
'Shadow_'
'Scha'
'Sadly_'
'Protecti'
'Politic'
'Patt'
'Octavia_'
'Nep'
'Mous'
'Merce'
'Mathe'
'Mate'
'Master'
'Mao_'
'Malley_'
'Lyra_'
'Lili'
'Lennie_'
'Lao_'
'Kyo'
'Jeanne_'
'Ignor'
'IP'
'IMF_'
'Hê'
'Hán_'
'Hub'
'Highl'
'Hic'
'Haha'
'Fresh_'
'Fish'
'Finger'
'Exp'
'Eth'
'Eleanor_'
'Easter_'
'Dum'
'Dino'
'Democrat'
'Cook_'
'Circu'
'Care'
'CC_'
'CAL'
'Bộ'
'Bree'
'Boi'
'Bilbo_'
'Barr_'
'BY_'
'Arya_'
'Animal_'
'/'
', “_'
' ? - _'
' + _'
'ớp_'
'ôi'
'wit_'
'wh'
'weekends_'
'wed'
'weav'
'voters_'
'vene'
'ub_'
'toxins_'
'towers_'
'thir'
'theo'
'ted'
'tasted_'
'spra'
'slice'
'sip_'
'siblings_'
'shorte'
'shock'
'shipped_'
'sentiment'
'sanctuary_'
'saddle_'
'rts_'
'recogniz'
'railroad_'
'profession'
'producer_'
'posed_'
'pollinat'
'phà'
'persisten'
'onn'
'oke_'
'nọc_'
'nanh_'
'meni'
'mathematic'
'masses_'
'loi'
'lain_'
'kề'
'interrupting_'
'inflict'
'hog_'
'găm_'
'greed_'
'gossip_'
'gne'
'gly'
'globalization_'
'gho'
'gass'
'gasp'
'firep'
'eras'
'enchant'
'eki'
'dừa_'
'dào_'
'dust'
'distinction_'
'disor'
'derive'
'defensive_'
'deduc'
'confronted_'
'cling'
'cinema_'
'chest'
'breache'
'boo'
'bob'
'banner'
'band'
'arity_'
'appreciation_'
'apa'
'ao'
'anh'
'anatomy_'
'agricultural_'
'Ukraine_'
'Tô'
'Truy_'
'Trin'
'That'
'Sunny_'
'Stand'
'Skype_'
'Shou'
'Season'
'Sarang_'
'SET'
'SEC'
'Ráng_'
'Rocke'
'Reddington_'
'Present'
'Plenty_'
'Pamela_'
'Pack'
'PIN'
'Omega_'
'Norton_'
'Ngô_'
'Mish'
'Lucille_'
'LAN'
'Khi'
'Kaf'
'INT'
'Hút_'
'Goku_'
'Gibbons_'
'Galv'
'Freud_'
'Fellow_'
'Dust'
'Dat'
'Cử_'
'Cody_'
'Chen'
'Chari'
'Cardi'
'Butterf'
'? '_'
'7th_'
'. ('
'! - '
'ão_'
'xỉu_'
'walker_'
'villagers_'
'unite_'
'umber'
'uman_'
'uli'
'tum_'
'traps_'
'toạ'
'tilt'
'ticking_'
'swap_'
'slightest_'
'simulate'
'râm_'
'ret_'
'reins'
'rech'
'quil'
'puss'
'pursuing_'
'phà_'
'patch'
'paralysis_'
'nitrogen_'
'nhạ'
'mó'
'muffin'
'mone'
'merchant'
'manage'
'lả_'
'linear_'
'legion'
'kle_'
'kah_'
'kab'
'ising_'
'intru'
'innocence_'
'inad'
'imaginary_'
'humbl'
'gạ'
'gaps_'
'fung'
'fade_'
'exponential'
'estr'
'enia'
'eal'
'dul'
'dm'
'ditch_'
'disk_'
'custom'
'convent'
'collectively_'
'closes_'
'cker'
'chè_'
'bành_'
'broad'
'base'
'bac'
'aspir'
'artif'
'amph'
'Yến_'
'Xuyên_'
'Vali'
'Trade_'
'Thr'
'Thorin_'
'THROAT_'
'Sà'
'Stock'
'Sport'
'Skip'
'Scream'
'Salvat'
'Sach'
'Rắn_'
'Riv'
'Puerto_'
'Prou'
'Pedro_'
'Pavl'
'Patien'
'OS_'
'Nova_'
'Mie'
'Lissa_'
'Lead_'
'Lannisters_'
'Khá'
'Kerr'
'KE_'
'Jarvis_'
'Inno'
'IV'
'Hop_'
'HIS_'
'Gogh_'
'Glas'
'GROANS_'
'Fry'
'Doll'
'Dob'
'Dart'
'DIA'
'Cot'
'Conc'
'Bạ'
'Brandt_'
'Brag'
'Blanc'
'Beta_'
'Audrey_'
'Arabia_'
'Alon'
'Aar'
'AC_'
'50s_'
'202'
' -- '
'zip_'
'yland_'
'xon'
'vable_'
'unrel'
'ulati'
'typing_'
'tráo_'
'trim'
'traded_'
'tourist_'
'throws_'
'thra'
'thorough_'
'thoi_'
'swoo'
'sus_'
'supportive_'
'suc'
'spill'
'slums_'
'sley_'
'slash'
'sinner'
'shutting_'
'shru'
'shitting_'
'shire_'
'seri'
'rubbish_'
'robotics_'
'rhyme'
'ression_'
'representing_'
'refus'
'rations_'
'randomly_'
'quá'
'prev'
'pope_'
'peril'
'penicillin_'
'outsider'
'orn_'
'oni_'
'oad_'
'nhút_'
'nging_'
'mme'
'mbling_'
'mble_'
'lở'
'lux'
'longi'
'kH'
'itor'
'ich'
'hằn_'
'hú'
'horns_'
'hopeful_'
'hilarious_'
'hil'
'giă'
'generosity_'
'garden'
'fath'
'entrepreneur_'
'enb'
'document'
'distracti'
'dick'
'destructive_'
'dece'
'dancers_'
'commodit'
'colonies_'
'chum'
'cellar_'
'camping_'
'buster'
'burst'
'big'
'abused_'
'Whip_'
'Wed'
'Vứt_'
'Vancouver_'
'UA'
'Tí'
'THINK_'
'Swan'
'Suzanne_'
'Stru'
'Stanton_'
'Sist'
'Sergei_'
'SCO'
'Reza_'
'Reuben_'
'Peggy_'
'McLa'
'Mack'
'List'
'Lay'
'Lam'
'Kenshin_'
'Inhuman_'
'Hut'
'Hess_'
'Hampshire_'
'Gaius_'
'Flower'
'Ey'
'Eden_'
'Dã'
'Django_'
'Deve'
'Coun'
'Cos_'
'Chocolate_'
'Chapp'
'CER'
'Bob'
'Berna'
'Bali_'
'?"'
'? - '
'87'
'3rd_'
'..?_'
'ỵ'
'ệu_'
'ythe_'
'xic'
'vous_'
'voluntar'
'visual'
'viewer_'
'vaccinat'
'uza_'
'ution_'
'undergo'
'trail'
'tos_'
'tock_'
'til_'
'tendency_'
'techno'
'sler_'
'sinking_'
'siege_'
'serotonin_'
'semina'
'selves_'
'sandwiches_'
'rving_'
'rushing_'
'rti'
'rit_'
'reli'
'rao_'
'protocols_'
'propo'
'progressive'
'prisons_'
'phone'
'permanently_'
'parenting_'
'ound_'
'oshi'
'osh'
'omic'
'offshore_'
'numerous_'
'ngáy_'
'nau'
'missi'
'matching_'
'mash'
'judging_'
'installation'
'injection_'
'ila'
'humo'
'herm'
'gly_'
'fut'
'fate'
'exploit_'
'ere_'
'eno'
'enha'
'ecti'
'drums_'
'download'
'disrespect_'
'discovering_'
'disappearing_'
'derma'
'dement'
'delayed_'
'deceiv'
'ddi'
'dark'
'cạ'
'contemplat'
'construct_'
'command'
'clin'
'clearing_'
'claws_'
'chiết_'
'bấ'
'boobs_'
'bill'
'bian'
'beginn'
'beacon_'
'bachelor_'
'attraction_'
'aspiration'
'asc'
'amplif'
'aaa'
'Zai'
'Wol'
'Vos'
'Tản'
'Trick'
'Thrac'
'Theon_'
'Tempe'
'TW'
'Stric'
'Sah'
'Quin'
'Prad'
'PC_'
'PAN'
'Ong_'
'Newman_'
'Nadia_'
'Mâ_'
'Mendez_'
'McMur'
'Mayday_'
'Mace_'
'MEN'
'Lori_'
'Horsem'
'Hindu_'
'Hallie_'
'Giang_'
'Fogg_'
'Filip'
'FS'
'Eleven_'
'ENGLISH_'
'Dion'
'Cute_'
'Cres'
'Celia_'
'Bone'
'Bobbi_'
'Behold_'
'Beast_'
'Ball_'
', #_'
'ặ'
'Ắ'
'̣.'
'zel'
'unin'
'tty_'
'trầy_'
'tou'
'thí'
'survey'
'supermarket_'
'striv'
'storm'
'stirr'
'stil'
'spectr'
'soph'
'singular'
'shap'
'shal'
'sailor_'
'rug'
'regi'
'rce_'
'provision'
'prank'
'pointless_'
'phỉ_'
'phal'
'perv'
'peanut_'
'pave'
'otte'
'orce'
'ntial'
'nis'
'nica'
'ngỗng_'
'nee'
'nause'
'mạt_'
'mt'
'mapping_'
'manuscript'
'lunch'
'liêu_'
'lib'
'klin'
'iot'
'inspector_'
'initially_'
'infant'
'impact'
'imp'
'ifu'
'hos'
'harness_'
'gãi_'
'gat'
'galle'
'fortunately_'
'fortress_'
'flank_'
'extraterrestrial'
'echo'
'dt'
'doms_'
'dictate'
'destr'
'constructi'
'clan'
'chun'
'chooses_'
'cherish'
'bẽ_'
'berg'
'awa'
'aven'
'athletes_'
'angles_'
'administrat'
'Yah_'
'Xiao'
'Wid'
'Whoop'
'Weren_'
'Weird_'
'Wad'
'WAR'
'Ty_'
'Trứng_'
'Thác'
'Thad'
'Subtitles_'
'Steal'
'Sham'
'Several_'
'Scra'
'SHOU'
'Ps'
'Prior'
'Ponc'
'Playing_'
'Ot'
'Octavi'
'Nepal_'
'Metropoli'
'McCa'
'Lob'
'Lift_'
'Letter'
'Lamb_'
'Kom'
'Kic'
'Jong_'
'Howe'
'HEL'
'Goldi'
'Gentl'
'Gay'
'Gad'
'Esse'
'Chie'
'CP'
'Brew'
'Brett'
'Bella'
'Bath'
'Bain'
'Austria'
'Augie_'
'Association_'
'Agency_'
'AA_'
'? ♫ ♫ _'
'1980s_'
'01'
'.*_'
'** _'
'ới'
'ật_'
'yi'
'yel'
'werewol'
'wandere'
'vàn_'
'vac'
'upp'
'uga'
'trớ_'
'toái_'
'tires_'
'thrust_'
'tamp'
'take'
'strang'
'soni'
'scul'
'rud'
'roth'
'residen'
'remarkably_'
'prototyp'
'prophe'
'percepti'
'paddle'
'onic'
'obli'
'ngố'
'lov'
'lace_'
'kén_'
'kwa'
'kisses_'
'inexp'
'ineff'
'inbo'
'inab'
'ichi'
'hốc_'
'hme'
'hah'
'gin'
'franc'
'frac'
'flirt'
'fireworks_'
'expenses_'
'escaping_'
'eron'
'emis'
'eca'
'dummy_'
'documentary_'
'describing_'
'dependenc'
'debts_'
'cube_'
'cript'
'colde'
'cci'
'buyer_'
'boile'
'bird'
'array_'
'aro_'
'aisle_'
'aid'
'advances_'
'abd'
'Yan_'
'Woa'
'WIN'
'WELL_'
'Voldemort_'
'Vasili'
'Tụ'
'Tạp_'
'Tái_'
'Tyre'
'Tobias_'
'Susie_'
'Staff_'
'Sod'
'SIN'
'Regina_'
'Reg_'
'Plato_'
'Pate'
'Oprah_'
'Nối_'
'Nhu'
'Mika'
'Mesa_'
'MON'
'Lil'
'Kwan'
'Kash'
'Journal_'
'Hm'
'Help'
'Hed'
'Grea'
'Georgi'
'Geneva_'
'Gather_'
'ERI'
'Draw_'
'DN'
'Corp'
'Constantine_'
'Common'
'Brave'
'BLE'
'Arb'
'Apologies_'
'4000_'
'36'
'♪♪'
'̀ '
'ù'
'êt_'
'zzo_'
'xấp_'
'vạ'
'vase'
'update'
'uch'
'turtle_'
'tray_'
'toá'
'thóc_'
'tall'
'sên_'
'sorrow_'
'snail'
'simplest_'
'shorts_'
'shepherd_'
'sai'
'safest_'
'rup'
'rode'
'regards_'
'raven'
'quote'
'pumps_'
'printer_'
'presc'
'posts_'
'poli'
'plin'
'otic'
'ogy_'
'offen'
'obsessi'
'noble'
'news'
'nent_'
'nanny_'
'louder_'
'lexi'
'intercept_'
'instruction_'
'indigenous_'
'hustle'
'hun_'
'happiest_'
'hant'
'gos'
'giò'
'generator_'
'fulness_'
'frost'
'firefl'
'faithful_'
'eyebrow'
'exhibit'
'excel'
'evaluation_'
'eradicate'
'ently_'
'enterprise_'
'enal'
'employed_'
'embryo'
'ective_'
'easiest_'
'ean'
'disobey'
'digit_'
'curi'
'cris'
'compartment'
'cheb'
'centr'
'bói_'
'biêt_'
'assassinate'
'aring_'
'appoint'
'ante'
'Yue'
'Yates_'
'Wilkins'
'Vu'
'Vampire'
'Tora'
'Tes'
'Standing_'
'Spread_'
'Smith'
'Sleep'
'Sioux_'
'Scottish_'
'STER'
'Rice_'
'Republican_'
'Rece'
'Rambo_'
'Pyr'
'Poss'
'Palestinian'
'Old'
'Ober'
'Nos'
'Norden_'
'Nguy'
'Nazare'
'NATO_'
'Moral'
'Mobil'
'McA'
'Macau_'
'MAN'
'Lagos_'
'LT_'
'Koh'
'Inte'
'Guilty_'
'Gilbert_'
'Galileo_'
'Forces_'
'Explo'
'Elder_'
'Confirm'
'Cann'
'Candice_'
'Cala'
'Arrest_'
'Agu'
'62'
'46'
'1987_'
'1973_'
' ] - '
' -'
' %._'
'Ừa_'
'ẳn_'
'̀ "_'
'zero'
'yman_'
'worship'
'workplace_'
'waste'
'vl'
'vee'
'transit_'
'tink'
'thoughtful_'
'tequila_'
'tant'
'tang'
'sup'
'squeez'
'sph'
'sp'
'slit_'
'rod_'
'reign_'
'reefs_'
'psychotic_'
'promi'
'profoundly_'
'phony_'
'perish'
'paro'
'organiz'
'oppo'
'obedien'
'nce'
'một'
'medications_'
'marking'
'luna'
'leman_'
'kiddo_'
'khâm_'
'keyboard_'
'isa'
'invade_'
'interns'
'intercept'
'implicat'
'ifi'
'hủ_'
'hover'
'gơ_'
'gà'
'goddess_'
'goddam'
'giễu_'
'fuel'
'expectancy_'
'erat'
'ept'
'enzyme_'
'enst'
'eh'
'ecolog'
'dwa'
'donut'
'disarm'
'directi'
'diagram_'
'deeds_'
'curtain_'
'ctu'
'competitor'
'citi'
'chà'
'chk'
'chc'
'censor'
'cass'
'canceled_'
'bươ_'
'bugger'
'bricks_'
'billi'
'awaits_'
'asteroid_'
'anna_'
'adventures_'
'Wil_'
'Werner_'
'Vo_'
'Unl'
'Turk_'
'Tulsa_'
'Trey_'
'Thạch_'
'Thơ_'
'Thing_'
'Tel'
'Swedish_'
'Student'
'Services_'
'Sci'
'Sayi'
'Purg'
'Pran'
'Pott'
'Philippines_'
'Paulo_'
'Partic'
'Optimus_'
'Mav'
'Martin'
'Linus_'
'Laughing_'
'Kno'
'Jin'
'Jen_'
'Frag'
'FBl_'
'Era'
'Empress_'
'Elo'
'Cyber'
'Creati'
'Costello_'
'Chew'
'CLEARS_'
'Bò_'
'Button_'
'Brock'
'Bris'
'Barr'
'Athelstan_'
'220_'
'200'
'1st_'
'17th_'
'10th_'
'... - '
'##'
'‎.'
'ớng_'
'Ưi'
'đản_'
'Đụ_'
'Đỉnh_'
'Đinh_'
'ýt_'
'ách_'
'ysi'
'wrestling_'
'wip'
'weighs_'
'victori'
'vich_'
'valued_'
'upload'
'unload'
'uff'
'uer'
'trĩ'
'trajectory_'
'too'
'thêu_'
'tered_'
'tary_'
'surgeons_'
'stroll'
'stly_'
'statements_'
'spike_'
'speculat'
'spaceship_'
'sleeve_'
'skelet'
'sition_'
'sbur'
'rmi'
'rival'
'ripe_'
'relax'
'priorities_'
'postcard'
'personali'
'perpetua'
'osit'
'onion'
'ography_'
'offspring_'
'nson_'
'must'
'moi'
'machinery_'
'kế'
'intersection_'
'inger_'
'infiltrate'
'igra'
'ican'
'heating_'
'hearted_'
'hari'
'had'
'gutte'
'gunfi'
'gm'
'gasoline_'
'friend'
'erd'
'enu'
'electrons_'
'echo_'
'doom_'
'dispos'
'did'
'df'
'devia'
'depict'
'demo_'
'defen'
'deem'
'consideration_'
'chỉ'
'chn'
'caf'
'buzz'
'buses_'
'brag'
'bikes_'
'beak'
'banker_'
'bange'
'aux_'
'authentic'
'ater_'
'appre'
'antic'
'aine_'
'ahem_'
'accountable_'
'accounta'
'aca'
'YN'
'WHY_'
'Virgin_'
'Vicodin_'
'Trâ'
'Sóng_'
'Stee'
'Stasi_'
'Stacey_'
'Shashi_'
'Shan_'
'Rá'
'Rig'
'RY_'
'Pic'
'PRO'
'PG'
'Ngưng_'
'NF'
'Mov'
'Melman_'
'Mei'
'Maximus_'
'Mathis'
'Mand'
'Leh'
'Lam_'
'Idea'
'Hors'
'Heil'
'Heal'
'Hammer_'
'Goodman_'
'Fring_'
'Flat'
'Eili'
'Eggs_'
'Dũng_'
'DE_'
'Cáo_'
'Chay'
'Cele'
'Catal'
'CAT'
'Bass'
'Baba'
'BJ_'
'BC_'
'Age'
'.-'
'ời'
'ốn'
'ạch_'
'Α'
'zil'
'zens'
'yla'
'xuồng_'
'xie_'
'washe'
'wald_'
'vascular_'
'uth_'
'unst'
'túm_'
'trau'
'tok'
'test'
'temporarily_'
'surrender'
'steril'
'speed'
'spear_'
'souvenir'
'smoked_'
'sketch_'
'shook_'
'scissors_'
'scanning_'
'rushed_'
'routes_'
'rni'
'ridd'
'reso'
'reply_'
'puppet_'
'proving_'
'prostitute_'
'plea_'
'packet'
'ows'
'overco'
'oning_'
'ologist_'
'notebook_'
'ndo_'
'mác_'
'measur'
'mble'
'masturbat'
'logi'
'llin'
'kies'
'khứ'
'khiêng_'
'implant_'
'immense_'
'hoc'
'gos_'
'gina'
'gical'
'fitte'
'fit'
'fibers_'
'ffr'
'ential'
'embarrass_'
'elevated_'
'eight'
'ees_'
'dìm_'
'doc'
'developer'
'desk'
'depths_'
'default_'
'decorate'
'deciding_'
'crucifi'
'crosses_'
'continuous_'
'confront'
'compl'
'coconut'
'coast'
'chộp_'
'chau'
'budge'
'batch_'
'atory_'
'anticipate_'
'anda'
'acre_'
'academy_'
'Zol'
'Wonder'
'Watt'
'Trách_'
'Tip'
'TA_'
'Synd'
'Ster'
'Sek'
'Sadd'
'Renly_'
'Range'
'Osc'
'Odysse'
'OL'
'Nau'
'Murdere'
'Monta'
'Merle_'
'Malik_'
'Little'
'Kẹ'
'Kip'
'Khổng_'
'Kendrick_'
'Kali'
'Jennings_'
'Jaw'
'JT_'
'Istanbul_'
'Identi'
'Họ'
'Holt_'
'Hiccup_'
'HIM_'
'Gras'
'Giving_'
'Geoffrey_'
'Execut'
'Dwayne_'
'Donnelly_'
'Depends_'
'Davina_'
'Darr'
'Crewe_'
'Coron'
'Conor_'
'Conlon_'
'Coh'
'Claus_'
'Celeste_'
'Bơ_'
'Beatrice_'
'Apart'
'Addi'
'?" '
'1m'
'1500_'
'.”_'
'để'
'yu_'
'wells_'
'volcano_'
'venom_'
'utter_'
'uous_'
'unarmed_'
'tweet'
'ttl'
'truths_'
'tribute_'
'stitche'
'sity_'
'simplicity_'
'seat'
'sciences_'
'scans_'
'rọi_'
'rle'
'rewarded_'
'revelation'
'repla'
'rano_'
'rai'
'qual'
'phai_'
'perfection_'
'parad'
'overdo'
'ortun'
'orde'
'opedi'
'ooo'
'omy_'
'nou'
'nodes_'
'necessit'
'mystic'
'mite'
'mercenar'
'mai'
'lư'
'lyric'
'limp'
'lid'
'lamp'
'jan_'
'irs_'
'ilant'
'hysteri'
'hypothetical'
'hostil'
'honorable_'
'holder_'
'hia'
'hereby_'
'gne_'
'geologi'
'fund'
'fora'
'foc'
'flights_'
'exi'
'ev_'
'esome_'
'esh_'
'enters_'
'embodi'
'eer_'
'eci'
'dus_'
'dod'
'contractor'
'consult_'
'confirm'
'circulat'
'chuô_'
'chim'
'cheers_'
'captur'
'camel_'
'bái_'
'bunker_'
'breathe'
'bankrupt'
'backst'
'atr'
'apprehen'
'anis'
'anim'
'ammunition_'
'acceptance_'
'Zimbabwe_'
'Yong_'
'Worm'
'VOICE_'
'Tươ'
'Tôi'
'Tree_'
'Tanner_'
'Stein'
'Snap'
'Saharan_'
'Prospe'
'Picasso_'
'Passe'
'Madd'
'LIE'
'Klu'
'Kett'
'Kenneth_'
'IRS_'
'Horn'
'Hog'
'Heisenberg_'
'Gr'
'Geor'
'Future_'
'Friend'
'Foo'
'Fir'
'Ext'
'Deliver'
'Cotton_'
'Cheryl_'
'Carlisle_'
'Bỉ_'
'Boun'
'Blai'
'Batto'
'August'
'Angel'
'1991_'
'. ._'
' ...'
'ộng_'
'Đc_'
'zzi'
'whim'
'wen'
'vằn_'
'valve_'
'urgen'
'umbrella_'
'ube'
'trư'
'torch_'
'synchron'
'surround_'
'suns'
'spott'
'spor'
'spiders_'
'som_'
'sian_'
'shallow_'
'sex'
'saves_'
'salo'
'rướ'
'ryn'
'review'
'rejoi'
'regulation_'
'refi'
'ree_'
'rah'
'persuasi'
'peers_'
'parks_'
'parasites_'
'oyster'
'owi'
'olut'
'nấng_'
'nấc_'
'noisy_'
'mứt_'
'mụn_'
'motiv'
'modified_'
'miệt_'
'magnet_'
'lid_'
'legislation_'
'khạ'
'khuâ'
'itte'
'incons'
'inca'
'impair'
'hờ'
'hotter_'
'hib'
'hes'
'gues_'
'grim'
'graves_'
'foe'
'fills_'
'fade'
'erton_'
'ential_'
'enr'
'donate_'
'degenerat'
'decrease_'
'cyber_'
'coy'
'condoms_'
'collision_'
'chuy'
'chl'
'chant'
'cco'
'blindness_'
'bers'
'beneficia'
'autonom'
'ats'
'alibi_'
'agu'
'Xin'
'Vall'
'Vac'
'Tước_'
'Terrible_'
'Sixty_'
'Singing_'
'Shelly_'
'Shah'
'Setsuko_'
'Secure_'
'Sant'
'SINGING_'
'Rese'
'Operation_'
'Ngục_'
'Name'
'Myers_'
'Musk'
'McGo'
'Mafia_'
'Leeds_'
'Kell'
'Jessup_'
'ICO_'
'Huấn_'
'Hubert_'
'Holo'
'Hana_'
'HL'
'HA_'
'Gur'
'Goodwin_'
'Fai'
'Electric'
'Education_'
'DIS'
'Cus'
'Cort'
'Constan'
'Charge_'
'Bunny_'
'Basil'
'Baghdad_'
'? ! _'
'... ..._'
'. #_'
'- $_'
' ♪'
'đú'
'ìn_'
'ÔNG_'
'xis'
'verbal_'
'tta'
'trat'
'thankful_'
'surfaces_'
'stew_'
'stee'
'ssed_'
'sne'
'scalp'
'sage'
'robbing_'
'riot'
'restricti'
'remed'
'refrigerator_'
'refere'
'rattle'
'puls'
'proportion_'
'profi'
'phộng_'
'phốt_'
'oxi_'
'olo_'
'nung_'
'nicer_'
'maid'
'lẳng_'
'lì_'
'loco'
'lh'
'lent_'
'lash'
'kite_'
'iq'
'inters'
'inin'
'ingredient_'
'info_'
'influen'
'hound_'
'hk'
'hierarch'
'hanged_'
'gene'
'gaze_'
'gage'
'furious_'
'existent'
'encode'
'elet'
'dép_'
'ducks_'
'dua'
'dini'
'dell'
'degrade'
'definiti'
'cute'
'creator_'
'coun'
'continu'
'conditioning_'
'cheese'
'bibl'
'behe'
'barber'
'banging_'
'autonomous_'
'auto_'
'aug'
'arse_'
'anthropolog'
'aker'
'airplanes_'
'Yoon_'
'Yak'
'Writ'
'Vala'
'Toà_'
'THU'
'Suck_'
'Slim_'
'Shot'
'Sha_'
'Sed'
'Scout_'
'Ria'
'Republicans_'
'Qi_'
'Pyth'
'Phúc_'
'Pf'
'Our'
'Oil_'
'Nile_'
'Mưa_'
'Mâ'
'Murd'
'Mean'
'MIN'
'Lộ'
'LET_'
'Intel_'
'Illu'
'IST'
'II'
'Hoga'
'Hobbit_'
'Glen_'
'Ghe'
'Foot_'
'Fibonacci_'
'Exper'
'Eduardo_'
'Duck_'
'Ds_'
'Doctors_'
'Darn'
'Daenerys_'
'Counte'
'Cay'
'Bờ_'
'Bit_'
'Bh'
'Baudelaire'
'Bau'
'Bah'
'BER'
'BBS_'
'Alca'
'Aim_'
'Aeg'
'5th_'
'52'
'..." '
'-"_'
'ẠI_'
'địt_'
'Đàn'
'walkers_'
'unse'
'unexp'
'una_'
'ui'
'triang'
'tran'
'towels_'
'tourists_'
'tia'
'thon_'
'sành_'
'shuttle_'
'ses'
'sensing_'
'rẫy_'
'ruler_'
'rness_'
'reset_'
'replicate_'
'rehab_'
'regenerati'
'recruited_'
'recommended_'
'rece'
'rainbow_'
'press'
'poured_'
'pinea'
'pent'
'pancakes_'
'omin'
'odor_'
'obliged_'
'nài_'
'nec'
'mị_'
'mow'
'marvelous_'
'manipulati'
'mails_'
'magnitude_'
'justifi'
'intrigue'
'interm'
'institutional'
'idio'
'ico'
'hộ'
'harass'
'hak'
'gunn'
'ghts_'
'gaard_'
'fran'
'exceptions_'
'eun'
'entrepreneur'
'eless'
'elementary_'
'elbow_'
'ef_'
'edo_'
'dậ'
'dynamite_'
'donati'
'demoli'
'deliberat'
'dah'
'cott'
'corporation_'
'communi'
'broker'
'boa_'
'bn'
'baz'
'bands_'
'ately_'
'associates_'
'aria'
'anu'
'advantage'
'Yar'
'Vạn_'
'Test_'
'Subt'
'Scar_'
'Rick'
'Raw'
'Raina_'
'Rafa'
'Qa'
'Poland_'
'Pilar_'
'Philip'
'Nhấn_'
'Milk_'
'Marv_'
'MIS'
'Lion_'
'Labo'
'Khuy'
'Key_'
'Jum'
'Jia'
'Javi_'
'Investigat'
'Herm'
'Gyeon'
'Greyjoy_'
'Greer_'
'Greeks_'
'Goliath_'
'Già'
'GOT_'
'Feder'
'Fay'
'Err'
'ESP'
'Drew_'
'Diê'
'Cớm_'
'Cạ'
'Coco'
'CHO'
'CHE'
'Budapest_'
'Brace_'
'Atlantis_'
'Anatol'
'Airport_'
'Ado'
'?" "_'
'184'
'.... ..._'
'. ['
') — _'
'ỹ_'
'Ợ'
'ổ'
'̀ ?_'
'Û'
'yen'
'weight'
'warp_'
'wak'
'vocal_'
'verte'
'vec'
'urb'
'unfinished_'
'udo'
'ua'
'thor'
'thirst_'
'terate'
'synth'
'summoned_'
'sse_'
'spying_'
'shifted_'
'shattered_'
'representati'
'rehearsal_'
'ratio'
'quô_'
'pup'
'pott'
'poop_'
'pois'
'physi'
'penetrat'
'ntu'
'ndid'
'motto_'
'locals_'
'lett'
'learns_'
'laze_'
'koo'
'khánh_'
'judgment'
'jacka'
'itle'
'inver'
'inia_'
'ilda_'
'hurricane_'
'helicopters_'
'hay'
'handi'
'guerrilla'
'gifted_'
'gaining_'
'ffi'
'exha'
'evolving_'
'erf'
'employ_'
'drought_'
'dorm'
'dian_'
'debris_'
'cruel'
'charging_'
'broo'
'boxer'
'books'
'biologists_'
'bedtime_'
'authori'
'auditor'
'aro'
'ako'
'affirm'
'abst'
'Zombie'
'Yuki'
'Xung_'
'Wie'
'Vita'
'VER_'
'Train_'
'Til'
'Tate_'
'Sông_'
'Spir'
'Shishio_'
'Scared_'
'Rule_'
'Roman'
'Roma_'
'Rol'
'Robot'
'Rid'
'Pel'
'Path'
'Os_'
'Ngậm_'
'Mãn'
'Morg'
'Mongol'
'Mirakuru_'
'Milton_'
'Mart'
'Locke_'
'Lauda_'
'Lamon'
'Lamb'
'Information_'
'Hoy'
'Hair'
'Gunther_'
'Gree'
'Gali'
'Fy'
'Fool'
'Foggy_'
'Deni'
'Danc'
'Cảng_'
'Cred'
'Colleen_'
'Camb'
'Cali_'
'CENT'
'Bơi_'
'Buộc_'
'Bul'
'Big'
'Baro'
'Bahamas_'
'Ati'
'ANING_'
'53'
'4th_'
'. ♫'
',.'
' ***'
'Ố_'
'́. _'
'Ç'
'½_'
'zer'
'yacht_'
'writ'
'wrist'
'wrath_'
'womb_'
'visualiz'
'violated_'
'vast'
'val_'
'uncl'
'tying_'
'tian_'
'thinkin_'
'them'
'symp'
'strap_'
'stadium_'
'slope'
'shrink'
'scumbag'
'screens_'
'sadly_'
'sadd'
'razor_'
'ransom_'
'practiced_'
'physicists_'
'pharmaceutical_'
'passports_'
'passive_'
'ors'
'oct'
'nko'
'neurological_'
'nationali'
'mustache_'
'mug'
'merry_'
'massacre_'
'mala'
'lủ'
'lul'
'liberate'
'lace'
'jihad_'
'janitor_'
'itude_'
'interrupted_'
'inhuman'
'ida_'
'humility_'
'hollow_'
'hairy_'
'grenade_'
'grace'
'genocide_'
'frontier_'
'flag'
'firm'
'firem'
'financial'
'finance'
'ethics_'
'enci'
'emerge'
'eigh_'
'effe'
'eav'
'ead'
'donkey_'
'dolphin_'
'dissolve'
'dispers'
'dering_'
'dangers_'
'curriculum_'
'culp'
'cta'
'cries_'
'cosmos_'
'convey_'
'coi'
'circl'
'chron'
'chel'
'cave'
'blanc'
'bending_'
'awe_'
'assembled_'
'accuracy_'
'accomplice'
'aar'
'ZZ'
'Wes_'
'Weapons_'
'Umb'
'Track'
'Toma'
'Taiwan_'
'Strauss_'
'Roh'
'Regard'
'Rave'
'RT'
'Portuguese_'
'Perc'
'Panthe'
'Ninety_'
'NIC'
'Mảnh_'
'Meechum_'
'MD'
'Local_'
'Learn'
'Jacobs_'
'Ja_'
'Initiat'
'Hank'
'Git'
'Gay_'
'Frederic'
'Fran_'
'Follow'
'Empty_'
'Eisenh'
'Dothraki_'
'Creasy_'
'Bitc'
'Bin_'
'Ata'
'Arsen'
'Apol'
'170_'
'$._'
' . '
' -- " _'
'Ấy_'
'đom_'
'zar_'
'workin'
'wned_'
'whack_'
'vệt_'
'váng_'
'uck'
'tí'
'tuned_'
'trooper'
'tobacco_'
'texture'
'tender_'
'stripper_'
'stinking_'
'sting'
'stem'
'spreads_'
'spark'
'solitary_'
'sneaking_'
'semester_'
'rookie_'
'rli'
'rive'
'reviv'
'reserves_'
'repeatedly_'
'recognise_'
'rci'
'quet'
'question'
'prohibit'
'pillar_'
'phả_'
'pedal'
'organizing_'
'oming_'
'numb_'
'ntr'
'nine'
'nigga'
'nia'
'neutron'
'nera'
'negotiation_'
'mủ_'
'motivati'
'mobility_'
'mming'
'mimic'
'metic'
'mate'
'lụi_'
'longe'
'logically_'
'lanc'
'killings_'
'jumps_'
'intensity_'
'instan'
'inl'
'hots'
'homosexual'
'hands'
'grit'
'gravitational_'
'glut'
'frig'
'extend'
'exile_'
'exercises_'
'euro_'
'ensu'
'embra'
'earthbend'
'dumps'
'dson_'
'dream'
'dol'
'documented_'
'dish'
'diplomatic_'
'diction'
'deposit'
'decorati'
'dear'
'courageous_'
'competen'
'coach'
'clarif'
'clap_'
'chic'
'bừng_'
'blee'
'bitt'
'beetle_'
'barre'
'bad'
'attended_'
'athe'
'association_'
'amid'
'aking_'
'addicted_'
'abb'
'Witch_'
'VER'
'USB_'
'Train'
'Torre'
'Spect'
'Shhh_'
'Sense'
'SM_'
'Rod_'
'Request'
'Punch'
'Proto'
'Problem_'
'Phan'
'Pas'
'Partner'
'Ox'
'Ort'
'Nowhere_'
'Morgana_'
'McFly_'
'Mayf'
'Legend'
'Lazarus_'
'LEE_'
'Kus'
'Kristen_'
'Kern'
'Julio_'
'Hul'
'Hide'
'Henri'
'Henderson_'
'Hasan_'
'Goose_'
'Gardner_'
'GUE'
'Further'
'Finn'
'Fas'
'Eviden'
'ETA_'
'Diver'
'Design_'
'Defen'
'Choose_'
'Chick'
'Cadillac_'
'Bubba_'
'Berk'
'Beer'
'Baldwin_'
'Avengers_'
'Alban'
'Agents_'
'Abi'
'253_'
'140'
'! ..._'
' ~'
' ==_'
'我'
'ửng_'
'Ị'
'ĐM_'
'ân'
'yar'
'ximat'
'waits_'
'verb'
'vegetable_'
'urd_'
'unwa'
'unity_'
'undo_'
'uct_'
'uad'
'tux'
'trom'
'trainer'
'thúi_'
'thre'
'superstitio'
'sunny_'
'straw_'
'stica'
'south'
'smurf'
'saw'
'ráo_'
'ruling_'
'rhino'
'resolved_'
'repo'
'refra'
'reconsider_'
'radically_'
'quie'
'publishing_'
'phình_'
'philosoph'
'pathogen'
'partial_'
'onto'
'olf'
'oki'
'nursing_'
'noted_'
'nhộ'
'mốt_'
'mushroom_'
'mph'
'malfunction'
'knuckle'
'kitten'
'insk'
'innovations_'
'initiati'
'informant_'
'ilit'
'ilar'
'ike_'
'hùm_'
'hói_'
'hunch_'
'humm'
'glit'
'gland'
'fuse'
'fertilizer'
'fect'
'enslave'
'elia_'
'dwarf_'
'deploy_'
'dav'
'criteria_'
'crazie'
'cour'
'countryside_'
'coon_'
'conv'
'contaminate'
'cons_'
'comrade_'
'compassionate_'
'collaborative_'
'coc'
'cio_'
'cie'
'chimpanzees_'
'bị'
'busi'
'agna'
'affi'
'aff'
'advocate_'
'adapti'
'activists_'
'accomplishment'
'Yểm_'
'Tuc'
'Trump_'
'Takes_'
'Sứ_'
'Strong_'
'Steph'
'Stan'
'Seren'
'Scientists_'
'Sanc'
'Samurai_'
'Rosali'
'Root_'
'Ridge_'
'Penn_'
'Pain_'
'Nut'
'Neanderthal_'
'Mila'
'Mercia_'
'Mater'
'Lau'
'Khô'
'Khaleesi_'
'Inh'
'Industrial_'
'Incredible_'
'IG'
'Hurr'
'Hopper_'
'Hollis_'
'Holli'
'Hiê'
'Henri_'
'Hav'
'Gua'
'Gestapo_'
'Gei'
'GL'
'Franz_'
'Foreign_'
'Farewell_'
'FE_'
'Emilio_'
'Davos_'
'Celt'
'Cell_'
'Callahan_'
'Cald'
'Bự_'
'Bảng_'
'Belgi'
'Ask'
'Ares_'
'America'
'Action_'
'Accept'
'? -- _'
'204'
'1965_'
'ƯỜI_'
'đo'
'yk'
'whispering_'
'week'
'vẹt_'
'viv'
'uth'
'umn_'
'uan'
'tut'
'trụy_'
'trọt_'
'transmitte'
'trans_'
'tossed_'
'titt'
'temporal_'
'struggled_'
[...]
